[PAD]
[UNK]
[CLS]
[SEP]
[MASK]
!
"
#
$
%
&
'
(
)
*
+
,
-
.
/
0
1
2
3
4
5
6
7
8
9
:
;
<
=
>
?
@
A
B
C
D
E
F
G
H
I
J
K
L
M
N
O
P
Q
R
S
T
U
V
W
X
Y
Z
\
^
_
`
a
b
c
d
e
f
g
h
i
j
k
l
m
n
o
p
q
r
s
t
u
v
w
x
y
z
|
~
¡
¢
£
¤
¥
¦
§
¨
©
ª
«
¬
®
¯
°
±
²
³
´
µ
¶
·
¸
¹
º
»
¼
½
¾
¿
Æ
Ð
×
Ø
Þ
ß
æ
ð
÷
ø
þ
Đ
đ
ħ
ı
ĳ
ĸ
Ł
ł
Ŋ
ŋ
Œ
œ
ŧ
Ɔ
ƒ
Ɣ
ƪ
ǝ
ȝ
ȼ
Ʉ
ɐ
ɑ
ɒ
ɓ
ɔ
ə
ɚ
ɜ
ɞ
ɟ
ɡ
ɣ
ɩ
ɪ
ɫ
ɹ
ʃ
ʊ
ʌ
ʎ
ʒ
ʔ
ʘ
ʚ
ʮ
ʹ
ʺ
ʻ
ʼ
ʽ
ʾ
ʿ
˃
ˆ
ˈ
ˉ
ˊ
ˋ
ː
˘
˚
˜
˝
ˮ
˽
΄
Α
Β
Γ
Δ
Ε
Ζ
Η
Θ
Ι
Κ
Λ
Μ
Ν
Ξ
Ο
Π
Ρ
Σ
Τ
Υ
Φ
Χ
Ψ
Ω
α
β
γ
δ
ε
ζ
η
θ
ι
κ
λ
μ
ν
ξ
ο
π
ρ
ς
σ
τ
υ
φ
χ
ψ
ω
Ϗ
ϐ
ϑ
ϒ
ϕ
ϖ
Ϛ
ϛ
ϝ
ϡ
ϰ
ϱ
ϲ
ϴ
϶
Ђ
Є
Ѕ
І
Ј
Љ
Њ
Ћ
Џ
А
Б
В
Г
Д
Е
Ж
З
И
К
Л
М
Н
О
П
Р
С
Т
У
Ф
Х
Ц
Ч
Ш
Щ
Ъ
Ы
Ь
Э
Ю
Я
а
б
в
г
д
е
ж
з
и
к
л
м
н
о
п
р
с
т
у
ф
х
ц
ч
ш
щ
ъ
ы
ь
э
ю
я
ђ
є
ѕ
і
ј
љ
њ
ћ
џ
ѡ
Ѣ
ѣ
Ѧ
ѧ
ѩ
Ѫ
ѫ
Ѯ
ѯ
Ѱ
ѱ
Ѳ
ѳ
Ѵ
ѵ
Ѿ
ѿ
ҁ
Ҍ
ҍ
Ґ
ґ
Ғ
ғ
җ
ҙ
Қ
қ
ң
ҥ
Ҩ
ҫ
Ү
ү
Ұ
ұ
Ҳ
ҳ
ҹ
һ
Ӏ
Ӄ
Ә
ә
Ө
ө
Բ
Ն
Ս
բ
ե
ն
ո
ս
ր
ւ
׀
א
ב
ג
ד
ה
ו
ז
ח
ט
י
ך
כ
ל
ם
מ
ן
נ
ס
ע
ף
פ
ץ
צ
ק
ר
ש
ת
װ
׳
״
؛
ء
ا
ب
ة
ت
ث
ج
ح
خ
د
ذ
ر
ز
س
ش
ص
ض
ط
ظ
ع
غ
ـ
ف
ق
ك
ل
م
ن
ه
و
ى
ي
١
٢
٭
ږ
ک
ی
ܐ
ܘ
ܝ
ܣ
ܦ
ܪ
ߘ
ߙ
अ
त
न
ब
म
य
ह
२
ด
ผ
ว
า
๏
ထ
ა
დ
ი
ლ
მ
ნ
ო
ყ
წ
ᄂ
ᄃ
ᄄ
ᄅ
ᄆ
ᄌ
ᄒ
ᅡ
ᅢ
ᅧ
ᆯ
ᆷ
ለ
ል
መ
ረ
ሻ
በ
ን
አ
ድ
ጅ
ጨ
ᛩ
᛭
ᴪ
᾽
᾿
῾
‖
†
‡
•
‣
‥
…
‰
′
″
‴
‼
‽
‿
⁄
⁰
⁴
⁹
ⁿ
₀
₁
₂
₃
₣
₤
€
₽
℃
ℋ
ℏ
ℐ
ℒ
№
℘
ℛ
ℜ
™
ℨ
ℰ
ℵ
⅒
⅓
⅔
⅕
⅗
⅘
⅙
⅚
⅛
⅜
⅝
⅞
←
↑
→
↓
↔
↕
↵
⇌
⇒
⇩
∂
∅
∆
∇
∈
∎
∏
∑
−
∕
∗
∘
∙
√
∞
∧
∨
∩
∫
∮
≅
≈
≡
≤
≥
≪
≫
⊂
⊃
⊙
⋃
⋅
⋘
⋙
⌒
⌠
⌣
①
②
③
④
Ⓕ
Ⓥ
─
┐
└
┘
├
┬
┴
┼
═
║
╓
╕
╖
╛
╜
╠
╥
╦
╧
╪
╫
▌
▓
■
□
▪
▫
▲
▶
►
▼
▽
◄
◆
◊
○
●
◕
◗
◘
◢
◦
◯
★
☆
☉
☐
☛
☝
☠
☹
☺
☻
☼
☽
☾
♀
♂
♈
♉
♊
♋
♌
♍
♎
♏
♐
♑
♒
♓
♔
♕
♠
♡
♣
♥
♦
♪
♫
✈
✑
✓
✔
✕
✖
✗
✚
✝
✠
✦
✻
✽
✿
❖
➀
➁
➔
➜
➤
➧
⦁
⨯
⩾
、
。
〇
い
う
え
お
か
く
け
こ
さ
し
す
せ
そ
た
ち
っ
つ
て
と
な
に
ぬ
の
は
ひ
ふ
も
や
ゆ
よ
ら
り
る
れ
ろ
を
ん
ア
イ
カ
キ
ク
コ
シ
ス
ト
ナ
ニ
ヌ
ハ
フ
ヘ
メ
ン
・
ー
䭋
一
七
不
中
丸
举
义
乗
九
亀
事
二
京
人
他
付
代
休
伤
何
你
來
侍
俗
修
俺
倭
先
克
八
冷
前
割
力
助
十
华
危
友
古
号
合
吳
味
啊
四
团
困
図
垢
場
塩
备
外
大
天
太
夷
奇
女
婆
学
官
室
家
小
局
屋
川
巡
工
常
式
弓
引
弾
当
心
志
怕
情
成
我
挽
捜
族
日
星
書
木
本
果
柔
桜
梔
梨
森
様
橋
正
気
水
氷
決
泉
深
温
潔
澜
澤
火
災
炎
然
熱
爆
爱
爾
犬
狂
現
理
生
男
番
白
的
盛
相
県
真
破
祖
称
系
統
総
線
縣
繭
罵
美
翳
老
肆
胡
興
花
荷
营
藻
虎
虐
蝦
裸
見
解
詭
警
谷
象
貴
远
道
鉞
銭
錯
閨
院
险
陶
集
雨
非
頑
額
顿
風
餮
饕
馬
駆
马
魏
黽
鼎
ꓺ
ꝏ
ﬁ
ﬂ
ﮒ
ﷲ
ﻯ
！
，
２
～
ｰ
￢
￣
￼
👹
😋
##к
##а
##т
##и
##в
##ш
##м
##с
##я
##р
##з
##д
##н
##о
##л
##ы
##у
##ф
##ж
##е
##ю
##щ
##г
##б
##ч
##Б
##Е
##Р
##И
##Т
##х
##ц
##r
##u
##d
##e
##n
##t
##ъ
##a
##l
##s
##п
##э
##ь
##5
##1
##7
##o
##x
##3
##6
##9
##4
##h
##i
##v
##О
##Н
##0
##2
##8
##z
##К
##П
##В
##Ю
##Э
##А
##Л
##Ь
##М
##Г
##Д
##g
##w
##C
##T
##V
##N
##У
##Ш
##f
##k
##y
##С
##p
##b
##c
##m
##З
##O
##D
##B
##j
##´
##E
##Ы
##X
##I
##Я
##°
##Ч
##┐
##ł
##¬
##F
##R
##L
##Z
##K
##Q
##ѣ
##Ф
##Х
##P
##q
##і
##Ц
##Δ
##H
##A
##Щ
##γ
##∙
##M
##Ж
##G
##S
##ә
##W
##U
##ε
##Y
##ι
##α
##ν
##μ
##η
##τ
##χ
##ο
##θ
##ρ
##є
##Ъ
##Ј
##ا
##ر
##ح
##υ
##π
##J
##¤
##×
##ђ
##ς
##ˮ
##λ
##╛
##σ
##و
##љ
##¸
##ң
##Α
##Τ
##Ρ
##Χ
##Ο
##Φ
##Ε
##Ν
##Β
##Κ
##Μ
##Ι
##ø
##Ђ
##ω
##δ
##ß
##№
##ξ
##ل
##ب
##ش
##º
##Ѕ
##ʹ
##═
##κ
##ζ
##¦
##β
##ғ
##І
##қ
##ɣ
##җ
##ت
##ي
##س
##®
##φ
##ĸ
##¾
##™
##☺
##ð
##ґ
##˝
##¹
##ѳ
##Ѣ
##ი
##ნ
##ო
##ʼ
##∫
##©
##ق
##ŋ
##˚
##ϱ
##→
##ə
##Є
##±
##њ
##ع
##ʌ
##ј
##²
##か
##つ
##て
##−
##Η
##Λ
##æ
##Ѫ
##ن
##Π
##£
##م
##≈
##ℏ
##▌
##⅔
##⁄
##¼
##Υ
##œ
##ج
##ة
##đ
##€
##ħ
##ה
##י
##■
##╜
##Ћ
##þ
##ψ
##↓
##غ
##خ
##د
##Ѵ
##½
##ف
##Σ
##╕
##∞
##ı
##₤
##ѩ
##ى
##ѵ
##し
##Ð
##᾽
##≥
##ɜ
##ː
##᾿
##₁
##΄
##Ω
##ҫ
##ҥ
##µ
##ћ
##һ
##⋅
##ק
##÷
##न
##≤
##╥
##▫
##↔
##ƒ
##ɫ
##¢
##⁰
##ه
##ص
##♦
##ထ
##ѿ
##₽
##ء
##ұ
##♥
##א
##מ
##ן
##≪
##ℰ
##ү
##─
##ط
##ك
##ˊ
##╧
##ว
##ผ
##♀
##║
##↑
##ѯ
##ע
##ל
##ח
##∗
##╦
##ﬂ
##ב
##ר
##ם
##џ
##ض
##³
##ת
##ו
##ג
##ɪ
##ϑ
##√
##▽
##⌒
##な
##⅓
##ҍ
##✕
##┴
##Ł
##ҳ
##ש
##כ
##נ
##ह
##ª
##≫
##∕
##≡
##ث
##٢
##ϰ
##ѧ
##Γ
##∇
##∂
##Џ
##ლ
##ی
##ד
##►
##פ
##ט
##ז
##Đ
##Ϛ
##ˆ
##ɒ
##╖
##♂
##ѕ
##ƪ
##ʃ
##ز
##ǝ
##˽
##¨
##ﬁ
##ĳ
##ʺ
##□
##ѫ
##ѱ
##˜
##￢
##ʾ
##Θ
##צ
##┘
##¯
##～
##მ
##დ
##ა
##Ⓕ
##₃
##ـ
##ɹ
##ך
##ظ
##ᅢ
##Љ
##ス
##フ
##Қ
##∆
##ϕ
##ذ
##∘
##ℜ
##¥
##ס
##⅝
##ʊ
##ɟ
##ʚ
##◦
##さ
##け
##る
##Ѧ
##ʒ
##ら
##よ
##う
##★
##ጅ
##ϛ
##れ
##ŧ
##₂
##ϐ
##ヘ
##￣
##˘
##←
##ℒ
##ϒ
##た
##ɑ
##⅞
##く
##ө
##っ
##ク
##ー
##ナ
##カ
##イ
##シ
##ン
##に
##ږ
##▓
##त
##ϴ
##Ґ
##⅜
##Þ
##ɓ
##ˉ
##の
##⁴
##ҹ
##Ɔ
##ト
##⌣
##✓
##キ
##を
##⅛
##い
##ܦ
##ܪ
##ܝ
##Ө
##መ
##ጨ
##ረ
##ሻ
##℃
##₀
##☼
##ո
##ւ
##ն
##ե
##Њ
##ɔ
##┬
##Æ
##ア
##ヌ
##ϖ
##╓
##ᅡ
##ᆯ
##ᄌ
##ᄅ
##ᆷ
##ᄒ
##ろ
##ҙ
##ϝ
##Œ
##✽
##ን
##ድ
##や
##は
##ん
##ˈ
##ʔ
##ף
##〇
##ᅧ
##Ξ
##Ѳ
##◊
##ʿ
##ɐ
##Ӄ
##Ғ
##ɡ
##ˋ
##ለ
##Ɣ
##Ҩ
##ｰ
##Ζ
##∑
##⋃
##と
##ﻯ
##ﮒ
##∮
##♪
##ɩ
##ɚ
##ɞ
##Ø
##す
##∩
##∧
##Ψ
##ܘ
##ܐ
##ր
##բ
##϶
##ս
##то
##но
##ст
##ен
##ал
по
##ро
##ер
##го
##ел
##ко
на
не
##ра
##ет
##ть
##ил
##ни
##во
##ри
##ся
##на
##ка
##ол
##ва
##ны
##ем
##ли
##ла
##да
##ки
##сь
за
##ре
##ит
что
ко
##ло
##ну
##ми
##ени
##ак
ра
бы
##не
то
от
про
##ру
##ов
##ти
##ед
##еи
при
##та
во
##мо
##ма
##ес
вы
##ви
##од
об
##ля
со
вс
мо
до
##до
это
##али
##ала
##ры
##му
##ку
##ши
##ест
##ель
из
##ди
ни
##же
##ча
##ста
ка
##за
но
##ле
##оль
##нои
он
##сто
все
##бо
как
##ня
##чи
##ль
под
раз
##де
##ез
##сть
##сти
ст
##га
го
##еб
##по
##лу
его
##ила
##енно
##ду
##аль
пер
##ам
##кои
##вер
##или
##ци
пре
сво
##его
##гда
##щи
##ныи
##ги
##па
##ря
##ться
##ные
##ис
##бы
##ного
##каз
##жи
##ения
ли
##от
##ало
##ела
##ще
кото
##вы
##ан
##ных
##со
##уд
##ше
##ме
##ение
##ень
##ар
##ели
##сп
##ется
##рав
##ев
По
##ход
##ско
так
##ют
##си
##шь
сто
же
да
##жно
##жа
##ты
та
##нул
пос
##ств
##еня
ру
##ид
сп
##ным
##рем
##нов
она
##ту
##ек
##оло
было
##из
ее
##ут
##ца
##сли
##ком
##ша
##би
##вет
ма
##ался
##са
##ор
##вать
##чно
##ски
На
##чес
##об
дру
меня
##ров
##лед
##ую
лю
Но
##ды
##ная
мы
##ился
##еп
##ке
##ят
##ело
##лы
ты
ста
##олько
##лю
са
зна
##ило
воз
##хо
##ве
##ебя
рас
##став
Он
од
##ство
##рос
еще
вз
##ков
ре
##итель
##раз
##мер
##он
##ное
##ние
для
##вши
пред
##тер
ва
мне
был
только
##гу
##ин
которы
##ния
##ба
хо
им
##том
##тель
ми
их
##ром
боль
##те
они
##вои
су
ду
##ему
уже
врем
##ную
##мы
##вал
чтобы
##ебе
ку
гла
##ран
##ном
когда
свои
Не
##дел
сло
оп
##елов
сказ
##жет
##ща
##се
##мот
##мен
##вно
бо
##вор
ча
##кры
буд
Да
дол
##еж
##ха
кон
или
##ении
слу
##чит
##нии
##уж
##ите
##вая
##гля
бу
##нима
##ции
##ера
##зна
без
##тов
##ена
па
##нула
##ались
сов
##иль
оч
Ко
ве
##алось
чер
##зы
нас
вер
##ить
пу
##алась
Это
##нь
мог
челов
##сту
##рет
ему
##ом
если
##ву
##кая
##лько
нап
ин
##ерь
##кие
чем
##каза
##илась
##рои
##ными
##кого
поч
##лен
##ник
За
ос
##ких
##ее
само
хот
##це
даже
##пу
была
ис
чу
него
пол
себя
эти
##ющи
##ешь
##жен
ви
##дин
##вя
вид
сам
##уч
##зи
тем
были
##чь
время
ус
##ились
Она
те
сказал
##ег
##мет
##шо
##неи
кра
##кии
##шел
расс
Ка
##чего
##цы
полу
Мо
##ства
пла
##тив
##стоя
##ками
##стро
рабо
ком
##су
##ете
##ность
жиз
может
##тому
##пол
голо
##жд
##нулся
стра
##бу
##ности
##ман
бол
Что
пере
##пы
нач
##гра
##кое
того
##яв
##нова
##род
##ять
де
##дом
##ыи
глаза
##гла
быть
очень
си
##ким
##пи
##ити
где
##рат
будет
Ма
##щест
##еперь
##че
##вод
гол
##ум
этого
Вы
есть
##еть
##вали
##про
##ван
##бои
##стви
Ра
ско
ответ
подо
##чу
##вори
кто
##ится
##илось
Ты
##ые
мол
##дер
ро
ме
сторо
нет
этом
##хи
##тя
##фи
##руг
##час
дер
##нее
Ни
нем
Во
##рел
прав
просто
##тор
спо
тебя
след
оста
##едь
##пер
##жал
##десь
##ника
исп
бес
Как
себе
##вед
##нял
##кра
каж
соб
##скои
##ступ
Ну
##ых
##еичас
##вает
там
##нут
##шеи
При
ла
##сы
##дела
##вест
##дар
них
##ита
##ним
##ствен
##раж
больше
кол
##ск
ба
ту
вот
помо
челове
перед
дела
поз
мои
##ья
##еле
##ются
##ясь
##соб
том
произ
жен
##дно
поло
##ред
##ением
##лет
пока
##удь
ск
##ительно
жи
гру
##шего
ничего
Если
мест
##жу
тру
этот
##зо
##деи
можно
##лек
##уш
друго
##сколько
вст
##ского
##але
##чест
##цу
реш
##шло
##еди
еи
##есто
лет
##ял
ост
сер
над
пи
##ере
##скии
которыи
тут
вас
Мы
##воль
тебе
##прав
##казы
##нес
##нал
То
Про
которые
после
хоро
##еля
##вшись
##ват
взгля
здесь
##чен
люб
Все
послед
голов
##рен
Так
##зя
тоже
тре
##вить
один
##прос
##кон
##вала
Бо
объ
От
##можно
потом
##ках
19
теперь
##ью
##чем
##ым
спрос
день
##нет
неи
##дать
##бли
##дца
##ленно
ок
случа
деи
сеичас
два
##дол
##тра
ним
много
нее
##ция
пра
свя
##рого
##ления
чув
через
##тельно
двер
кро
более
ло
##чет
Ан
##ению
нам
ки
вам
##клю
##яс
##лаго
##нуть
надо
##ваться
всех
##сов
несколько
##бе
##пе
ди
всего
ну
други
Вот
буду
обо
Они
##сем
##лем
зем
##при
##ню
##лись
##им
говори
##казать
му
##нечно
##сси
##кто
тот
##выи
##терес
пар
человек
дев
ти
##чал
##лыш
уви
луч
Ро
кре
##ставля
коро
##пас
##цо
свет
кар
пло
##шли
##рая
Та
ша
##нец
своеи
откры
##ент
##дов
##зу
##будь
##мест
##ственно
##шла
лишь
улы
##дан
##щеи
##ление
Го
смот
##ска
##вые
говор
##воз
гу
род
##вого
пы
глу
До
##нулась
##дал
##рии
муж
##вое
##тои
Дж
##ников
вол
##тичес
Нет
##ских
год
##кую
##ери
Когда
женщи
нибудь
образ
пов
##ежду
три
ар
##сты
##ян
##нако
расп
##стью
##шу
Са
дет
##нять
##ально
потому
дело
##лад
##щего
Ва
вд
снова
Ми
##вания
уб
свою
жизни
##стя
##вля
продол
этои
ле
ря
##когда
ведь
##ге
рез
сдела
##вен
##ших
##тем
слова
##ены
##ству
##стра
##сно
##юсь
исто
кри
Па
повер
лег
тех
отно
##пом
##говор
ог
дви
пря
##рь
##еш
Со
##вых
##дет
##разу
дума
сил
всегда
замет
ор
##три
кру
сем
##стер
тя
Од
мал
##ники
всем
##ина
улыб
совер
вся
име
##ур
наход
##сом
такои
благо
##рон
##вом
##нить
##чки
сол
зап
между
##ех
тогда
##лин
##вшии
##жил
сы
почти
доб
чего
доро
усп
смо
Пос
##шая
##жение
##имо
##ряд
тер
##дя
поб
##рое
##жать
##чка
сид
##иса
руки
вели
пор
##ерт
##елеи
##вра
ав
##щии
##цион
##див
жизнь
чет
ника
##цев
##вается
##вар
спросил
##вари
долж
людеи
оказ
вопрос
##цию
понима
##фор
хотя
ска
посмот
##чита
##лась
##вым
гор
##чина
пле
силь
бли
##спо
возможно
стал
ры
##ские
гра
нов
сли
своих
##хот
нужно
никогда
против
какои
своего
ан
##нем
совсем
ут
##вание
##вался
сущест
Из
сказала
знаю
##тия
##торы
##ец
##сс
поли
собои
эта
##сло
##кнул
года
сразу
комна
внима
маши
тол
##дь
появ
нео
##тери
##щее
времени
##енного
##щу
##нил
##рать
соверш
##нув
Мне
ум
##шком
##шка
друг
##ета
##чала
пом
сдел
словно
##жения
смер
обы
##вают
##емо
се
##зов
Под
голову
##мои
Пер
Хо
дву
##чить
позво
сказать
почему
##енныи
пот
руку
##дня
проб
люди
##дох
##рую
преж
мно
высо
##чил
##мент
Его
##рак
##месте
хорошо
остав
интерес
##кан
сооб
га
кор
впер
человека
##част
##нок
дома
могу
сле
##шии
##кими
уж
прис
##жест
соз
согла
##реть
##ному
нуж
вла
##ир
свое
обра
лучше
Ст
именно
мед
##жда
ак
наб
##дцать
быстро
Ла
удив
наде
весь
##вич
##этому
вдруг
встре
даль
##олод
девуш
##ходит
Ли
##конец
##рал
вооб
фор
##щая
сла
##реди
##сколь
##шие
будто
##воря
##бор
##егодня
##иту
коман
пе
##раб
##ятель
конечно
кап
молод
##чку
ответил
похо
##зан
направ
жела
##гли
##пыт
горо
вместе
##ток
Мар
кни
##она
нес
способ
##чение
##низ
уби
##хват
каз
##шим
вто
которои
##жить
слишком
##бод
ши
которая
##щих
##ума
##енные
##нием
куда
##юда
другои
поня
неко
недо
Ар
##дои
неп
##сла
должен
##реи
ход
##стеи
##леи
уда
неб
##реб
##ваю
вои
деся
##чер
рядом
##рю
##чнои
##гов
##зад
##шки
необ
##спод
соби
вне
выс
сме
лицо
авто
паль
##ях
пр
внут
##мина
заб
дерев
##редел
вра
увер
подоб
##него
дел
##ющии
Раз
также
##ик
##щие
эту
##еннои
орга
место
##шую
##тии
работа
##рее
##енных
##след
##чать
##вших
тому
уз
##ху
назад
тор
такое
эк
извест
Алек
сторону
##уль
##стои
##ская
которых
##ун
##хов
##ностью
этих
Лю
##лон
своим
Пол
##вшие
чувство
уго
Только
##ок
##нию
отнош
16
##жды
стоя
одна
##00
стран
уч
##лом
##рот
мет
вес
##нала
проис
##них
тяж
особ
##енное
##вел
##чат
чуть
этим
состоя
##что
малень
##вольно
прямо
тра
слыш
##еры
стар
##ливо
##ружи
жел
деиств
стороны
сви
немного
##рия
##ющих
##вез
##дить
доста
спи
##фа
случае
обла
##анд
ожи
##гии
##нос
##того
обрат
чи
##чныи
##ив
##рок
вообще
навер
##тан
знал
Однако
##ган
глав
долго
дверь
кры
сту
уг
##шать
которого
прос
##елось
рус
##ющие
осо
##есть
##ваи
объяс
восп
##казал
##ница
голос
назы
##чин
мыс
##тро
головои
однои
ули
сделать
мнои
Чер
##бер
никто
необход
уп
точно
##ствия
##сить
Зна
ха
тво
##шои
Теперь
сос
возду
Может
##тал
##ии
##щения
##щение
##ствие
настоя
##рован
ды
##нд
делать
бро
##цов
##рит
##тыи
теле
##пад
явля
счита
##дав
сегодня
свер
##щем
##кус
##тить
хозя
##гичес
Ба
##кам
сна
совершенно
##куда
воло
##ходя
иг
язы
##станов
одно
говорит
самом
##круг
равно
сама
Ку
кого
уст
отли
опу
прекра
##ваясь
##лов
дум
очер
Об
##чные
взгляд
##еро
##рев
##альные
##ои
##пор
Пет
матери
подум
Поч
##ровать
Ста
кив
##ском
предло
##ести
одного
забы
крас
вет
проц
##уи
брос
##тно
гро
##нер
##рела
##вле
кажды
исполь
##хва
хотел
помощ
потер
##вин
представ
ночь
##судар
##кому
##рез
лес
##точно
приход
двух
##чения
##рик
##рова
##нули
кам
отправ
наш
##ети
удо
мя
##ье
огром
спе
наз
##ув
деле
##альнои
спа
бор
Бы
зам
Ин
затем
##руж
Ру
стро
Сер
хоть
поп
мор
места
спокои
##чных
образом
определ
город
всю
тро
##нами
следую
момент
##чик
##мыс
##лении
мир
оно
дом
ними
закон
могла
неу
видел
##хом
сот
зву
спу
##вести
других
##тур
тыся
##вались
тело
##дум
##кла
##хра
останов
##ует
ото
см
##ельзя
гля
либо
кла
пост
разго
понял
##нали
нему
Ви
##шее
обна
##нуться
##ством
наконец
произнес
должны
опас
отс
##бов
Кто
сами
скоро
которую
сек
стало
##стран
##щую
Алекс
После
живо
##гие
##два
##роде
##стве
##ерьез
закры
пожал
Им
груп
18
четы
ху
говорил
месте
мало
уни
зас
друга
##дель
пять
Росси
оде
##ским
холод
серд
ужа
##ницы
вокруг
вып
##вало
##ятно
стол
таки
##жем
##ант
##раться
##гом
##дви
обя
непри
##яти
выб
дня
Воз
##чилось
##держ
##сторо
сред
призна
зло
собствен
Ле
вос
##ятся
##вора
любо
сист
##тами
какие
зада
уд
бра
мину
##держи
могут
##нулись
свобод
говоря
##ями
зак
мен
непо
государ
##альных
##виться
моеи
##готов
дан
##иб
##тора
Потом
##тин
твои
начал
узна
наблю
сом
скры
вед
гото
##ческои
Пу
##дели
##шлось
выход
##нит
##мом
##ялся
##щим
таким
спра
хочу
ощу
дальше
давно
##вели
минут
##ема
ад
Почему
деиствительно
##рин
выгля
самого
могли
Тогда
##бав
фак
ради
поле
Для
поль
проти
##втра
##ступа
такие
будут
маль
руко
##нения
общест
##ова
##коло
случаи
кораб
##итесь
##так
##рабо
особенно
значит
##дут
глаз
##жешь
види
цвет
лу
леж
##чного
ноги
офи
##гами
##ником
стали
подня
которое
Хот
бер
должно
заня
##кал
опять
##дат
##ителя
ино
краи
обе
##валась
кажется
представля
##цеи
##полне
##идет
две
стоит
##роп
сюда
160
##руш
##сят
##рался
страш
##эн
тихо
проблем
##сса
дале
##пис
##ключ
меч
тон
прин
Кар
##ставить
меся
основ
совет
стен
##тон
##деть
неболь
##чество
##лан
един
све
протя
каждыи
четыре
Ско
моя
приня
бед
возвра
##стов
нельзя
встрет
едва
постоя
##форма
##енным
пись
Сов
##пера
отве
мысли
##вшего
рис
##ража
хоч
Или
##цами
##ио
##нах
показ
##нялся
##ствии
среди
беспо
широ
попыт
вперед
##дания
##ыми
Вер
заме
##док
вов
Еще
прежде
радо
цел
##тые
конце
иде
станов
Кон
##чера
необходимо
##илли
ген
##мери
сум
часть
говорить
измен
пес
##гнов
##реп
сделал
##венно
бел
##зь
бе
знает
##лови
произо
поэтому
неза
служ
прид
##жидан
##кола
##образ
туда
##дает
##ульта
##лик
##альныи
##цен
##ствую
кур
пого
увидел
специ
##цем
##нев
##исс
любов
чис
некоторы
заметил
серьез
рукои
глубо
##чным
##цом
запа
такого
части
вспом
привы
году
##ального
##сон
Конечно
##эр
##ителеи
##елен
##матри
соглас
пои
##кать
стала
##ньше
##поло
зако
этому
##дая
##чает
дра
##ческих
другие
пут
длин
Си
##рели
##гал
часто
##чали
##дали
управ
решил
пыта
##жении
тои
##жала
##ждения
спросила
своем
оружи
мгнов
испы
##лся
##чаи
раньше
пыт
созна
Там
##рыи
Даже
##ерк
##новь
вполне
бога
казалось
##вид
##ское
поме
глазами
фо
прошло
почув
##ови
##няя
достаточно
##пло
дов
выпол
##чая
проф
Анд
женщина
вздох
сти
теп
##гляды
##шин
отец
##шем
сколько
сод
мар
поко
удар
реб
кроме
##рить
##мя
##чеи
хотелось
результа
разд
##стру
Мак
##вую
готов
##нувшись
##рали
квар
наши
##лага
ид
приз
Га
нрав
##ева
перест
Су
арми
стать
##хе
первыи
##щен
начина
посмотрел
мень
##итан
здо
Хоро
разли
медленно
пог
кня
##ременно
органи
суд
##кова
##ствовал
##скую
начала
фи
тобои
ого
##ители
таких
кос
менее
близ
пок
уча
Гер
противо
разв
##шку
довольно
##фф
##скольку
знаком
вновь
##пуст
существо
неиз
должна
прак
тан
окон
##ента
##еру
##чами
постоян
##ющим
взя
лица
Ведь
воск
##шить
перес
нос
##чие
##чиво
##тки
Прав
##лес
рассказы
##ваем
господ
Ха
хват
зави
##прочем
##чез
неожидан
пришлось
##стин
яр
бан
пят
двери
##ческого
однако
##нуло
##рам
##сте
##хода
##хать
подумал
харак
##рода
пример
##рах
деньги
Боль
##еты
##дешь
самое
сердце
##фо
секу
кивнул
умер
стоял
##доб
##мах
кров
соот
яв
Гла
##руд
##тил
##стоятель
дости
##стить
фа
Моск
кори
##ческие
энер
оши
оди
пам
##фе
исчез
знать
##зе
люби
котором
##кро
слово
информа
легко
зу
##ражение
восто
дро
города
поро
##наче
моего
правда
всеи
невоз
попро
мере
нена
##иться
##нам
имя
##стан
смерти
##нение
##ницу
одну
##чная
комп
##лег
##цеп
##един
##нице
воины
##помина
Хотя
защ
силы
друз
шко
##жим
стрем
Вас
каби
##гать
##итуа
бума
самои
ладо
Сеичас
нор
сест
право
заяв
Тем
##мыш
гре
жа
понять
удалось
##тых
##елю
краси
Ее
##шему
##оли
Лу
Пре
цент
мое
придется
прибли
##нику
##возь
лично
пути
гром
завтра
девушка
##ктор
руках
руками
##елем
нашеи
креп
Ти
Поэтому
истори
Бу
##ям
большои
своими
Ри
домои
собственно
##рами
бере
##вив
##пан
следует
народ
наити
ап
какое
##чества
##шед
вечер
##зации
солн
нау
семь
работы
##пра
##графи
##тически
пси
такая
##ствовать
корот
горя
шта
##изи
столь
знаешь
причи
##ческии
куп
компа
бои
темно
пару
ситуа
выз
думал
напря
сильно
опы
постав
второи
переп
##тая
зал
занима
профес
молча
##нила
Ло
услыш
нер
сопро
каждо
генер
##дии
вско
думаю
воис
нав
испол
собира
преду
лиш
##место
дево
коло
##нав
окру
##дала
Нес
##пно
Александ
сне
взял
кли
##альное
##тие
поряд
убии
##стно
таи
Господ
процес
##чек
Здесь
воды
зво
жить
##врат
##рения
##ваются
нами
часов
имеет
которым
изоб
пото
##иты
дал
##мени
днеи
плохо
собы
Ду
##ровал
##ильно
ше
цар
подоз
пово
10
смыс
вниз
получ
кварти
шел
внимание
##гре
судь
боя
провер
является
услови
сила
далеко
мас
началь
важ
##тать
##енная
##луша
самыи
Пока
живот
ран
##ющего
мира
опера
##циеи
обычно
##честве
каким
##читы
мать
##грам
##дам
гости
##мотря
какая
##нется
##стал
Кра
##гая
Ев
##роб
спраши
вроде
аб
##ужд
зад
##анта
чита
##чке
осторо
##лок
##печат
##дание
внутрен
уров
соответ
пож
Бер
попа
##вшеи
##мента
съ
скорее
виде
бело
##емон
##стати
счит
##выми
Где
ден
мальчи
Ива
##дил
хи
##интерес
Кро
стрел
возник
Ди
Хорошо
##хран
весьма
мысль
сообщ
##ристи
около
путь
##ствует
##еду
##валось
Через
##чески
вышел
оказался
разу
глазах
взглядом
трех
мерт
##кин
ев
##нему
##мир
задум
гря
пусть
присут
##над
##номи
товари
работу
пода
##жаи
Никола
##беж
золо
ску
##стом
безо
сму
##ехал
Вла
Сто
отца
##гнул
Фран
##луш
##гих
России
коли
своему
##тала
мел
##ведения
##чается
ответила
##ворить
успо
##ющеи
##гах
Надо
##тен
поки
обяза
стара
перем
поним
круп
##гои
Значит
улыбнулся
смотрел
##ните
лоша
##шек
хозяи
##зии
идет
##тым
чуд
##лена
характер
##емся
содер
Затем
основа
игра
поза
производ
поскольку
знач
мужчи
##волю
пришел
усме
мяг
##лять
Тут
вами
##шения
##пов
бук
##жила
##щему
еди
комнату
землю
Вели
видимо
обес
##альным
спокоино
меньше
##нитель
гер
явно
##пот
детеи
##грани
охот
Ки
##езд
зачем
виду
использо
##лия
ги
##под
вовсе
иначе
би
##ждение
##дами
понимаю
прибы
##стест
##воре
##кнула
##чии
15
эксп
соци
ны
##сами
##ия
##пре
наших
писа
Ничего
сосед
ребен
##нюю
древ
осво
десять
руковод
внеш
мире
##гло
##мол
##чень
насто
##вшиися
пригла
##говорил
сча
голове
искус
кое
знала
##чо
##мин
рот
##зем
кому
тяжело
случилось
##мана
##лением
ред
##исал
##частли
##щал
##оз
нашего
##ешься
иногда
завер
##ат
##er
##жит
сим
##рались
твер
##мец
забо
тел
##надле
куль
видеть
##чную
Ему
##твер
Мэ
##читься
Зем
фран
утвер
тысяч
газ
поступ
##ленные
коридо
времен
хочет
##сибо
##вшим
откуда
сквозь
мини
Сам
##фон
относ
Вс
прово
иск
полови
принадле
тела
##ден
звез
отношения
##мая
будем
единствен
бое
прекрас
хочешь
быст
##рт
##жали
вод
истории
мужчина
справ
пошел
лов
##чис
добав
женщины
мисс
мою
степ
разре
волосы
команди
##ример
глядя
спас
резко
##вол
##леп
##алу
##лоп
ал
##туры
ново
столько
прост
опуст
переб
##стре
покры
никак
систем
одним
##тали
фигу
испу
20
отк
##датель
##едо
идти
короле
возможность
11
лест
доме
час
Этот
##жется
площа
полностью
##тах
##нин
Впрочем
Гар
##лены
##хватил
##тивно
смог
уничто
моз
важно
слов
например
самол
возра
##чится
поги
земли
успел
мод
проз
ввер
##енности
видно
удоволь
другом
пара
секрет
##енность
##овал
перев
рука
##дцати
##орд
англи
12
##бря
##дем
преступ
двадцать
##лест
застав
Ген
##мерикан
##чное
укра
разве
ук
хотела
двор
##чив
свидет
тяжел
##рому
##рина
заклю
развити
##рала
##там
##шься
##алы
##бку
вис
проход
клю
исслед
мимо
невозможно
##бира
през
принима
##бур
зат
позволя
##хнул
моих
Ча
душе
##лина
Му
##цам
##нят
продолжал
##надцать
обер
##рес
смерть
Эти
желез
##стья
##тое
##шение
##иг
разговор
пожалуи
##олее
выше
прояв
устро
ца
мра
Ре
##илои
##жнои
земле
вход
##ленныи
конца
стру
предо
##еса
стек
##шен
##итера
Де
самым
известно
сидел
##меи
никаких
##ражения
одном
низ
##ужели
плечами
ге
веро
##ген
##лось
##жин
внимания
трудно
груди
похоже
цело
стан
подтвер
настолько
##мов
Джеи
отвер
##клады
##спеш
##ушка
##стрел
Спа
мона
Их
провод
утра
потреб
чест
##ленных
##бил
Просто
##ремя
поднял
силу
##точ
Кол
##знач
##вок
показы
##шал
##меня
жерт
##ору
##кар
поверх
дога
оконча
брат
поля
подума
вещи
наверное
поис
подошел
хол
вместо
##цел
кем
##альная
четвер
намер
вклю
созда
##няка
остро
болез
##сол
музы
внутри
Пред
шо
Правда
годы
ясно
##запно
цель
##еке
комнате
произошло
##никами
вызы
##енном
##жеи
отдел
17
воро
##скому
счет
##лыи
##бами
##стри
установ
уход
##вшая
номер
фото
усили
##бом
другого
заго
обратно
Ве
моло
осторожно
##ваите
труд
##гер
##бить
##идя
##мок
лице
194
##кат
угро
минуту
##II
ибо
происходит
Сол
мага
доку
Тот
Мои
##жде
многие
столи
деятель
вел
##щаться
связи
Кор
последнии
располо
помочь
несколь
физи
##раздо
##чером
##ску
##идем
запис
слег
поста
голу
Меня
мер
думать
сел
вернулся
держа
тран
бур
Один
уме
##гает
терп
какую
##алом
Навер
слегка
план
##лер
Возможно
прок
##шеп
безопас
некото
дис
##бора
счастли
контро
права
постоянно
простран
ужас
поку
губы
##гия
духов
##ола
Сло
##спек
впечат
пора
Потому
пери
##новременно
оба
##тую
одино
взять
американ
всему
Наконец
ще
крова
естест
разо
развед
стены
Джо
сих
##естви
##рито
нак
##меется
прият
Кэ
срав
##их
головы
##мож
##едленно
возле
##сит
очеред
##шно
вверх
сначала
мощ
Гри
Дев
##даря
поэ
нож
норм
власти
хра
концов
эко
##сии
жена
армии
жив
огля
дать
усмех
непод
карти
спинои
худо
раст
другим
Без
##десят
милли
поняла
##рд
францу
часа
души
##стр
##поми
Гу
напол
жур
Дже
##ствием
кух
пти
##дев
уста
нашел
побед
политичес
позна
звер
##сор
цен
науч
объяв
цели
Ав
попрос
правитель
тю
другое
##таль
оказалось
голова
принци
станет
отдель
##тики
Чтобы
##разд
голосом
каса
осталось
Миха
фун
ног
крови
элек
гораздо
секун
разб
оказы
двига
самых
трево
таком
имел
##тащ
слож
могло
##нести
##арь
вчера
##менты
глуби
##ана
обс
##рип
Вал
борь
##ань
людя
##пал
##ралась
##лот
большо
##мую
распо
Дума
##ффек
наступ
поднима
##пла
существу
друзья
плать
##ися
сын
неожиданно
участ
приказ
Есть
Аль
##нике
##щать
##руз
##риз
машины
##ами
жал
оз
##дук
##чим
##ено
Ладно
небо
##мое
сможет
##мотри
немец
рав
Ту
прив
Ал
свете
##дума
повто
видела
отсут
Гор
ува
Очень
знаете
Те
помощью
##рис
речь
моему
выяс
настро
##шими
сб
никого
жест
предпри
вза
кровь
убеж
##нении
узнать
##пуска
первых
Род
##тел
говорят
шесть
##алан
##сков
##мор
объек
капитан
шаг
рассказ
пона
##юз
##рыв
множест
метал
Кроме
##дим
треть
брать
##лых
##дит
Вол
##вяз
цер
Зачем
Пусть
ночью
сохра
пяти
пох
помощь
увидеть
##ьют
импера
Се
воду
част
##гна
Разве
друж
дав
##дра
охра
слышал
##навли
превра
денег
течение
некоторые
чувства
состоянии
возь
граж
##зать
получил
дети
##мым
Ша
мистер
Ах
огонь
ненави
уверен
Именно
став
##вшихся
повтор
##солют
##ьте
замер
##казаться
можешь
##кс
воздух
любви
##пар
краинеи
лицом
##лые
##яли
погиб
прикры
парень
демо
здоров
чему
##вшиеся
оружие
##жая
соба
##рые
##мит
##чув
##етесь
нару
Коро
возможности
##сим
предпо
обеспе
##кнов
##стями
север
добро
человеком
##люб
требу
никакого
ночи
дожд
хле
##юр
говорю
##чкои
любои
##лета
##скими
Эта
новые
тек
Бар
Ор
террито
очередь
##дают
##ологичес
##иле
##бри
##дании
дя
##теи
Ска
недел
##шает
лод
##ентов
состав
##мар
##жением
неж
##ительныи
##ус
трудом
нев
деиствия
ступ
одновременно
##ялась
##вании
довер
порядке
##титься
##щении
утром
офиц
чтоб
##рово
работать
выступ
##ворачи
успе
обстоятель
вздохнул
##лению
##ика
необы
лож
Нам
экономи
первои
##еви
##веро
##ствовала
такую
##дах
Пов
сни
Неужели
##жив
##щими
мама
убед
Дол
##шина
говорили
молодои
##казан
##ехали
самые
дороге
дни
Можно
верх
##ющее
##ческая
развер
земля
ль
напро
Вз
море
пору
##мур
автома
##ристо
литера
подс
озна
стояла
##теля
дыха
принес
бал
вспы
кост
##ад
бесс
руке
замеча
##нужд
фрон
качестве
прием
рук
мило
Вам
200
поход
любовь
восем
##жили
распро
испыты
ждать
##гам
несмотря
##веи
смотреть
##ческое
##ализ
большин
приоб
исключ
полез
##симо
находится
круг
Ио
ию
всеми
##жду
вижу
улыбнулась
прекрасно
конф
вопросы
каких
многих
внимательно
програм
новыи
устав
особо
##рек
Свя
мгновение
посмотрела
переда
сотруд
заним
##тыми
##мыи
подъ
##сия
мил
##тыл
##илосо
пры
##кос
последние
сереб
нечто
дорого
можете
общем
##рика
разум
неизвест
иметь
##рица
потя
##СС
пон
какого
##ющая
##сок
разговари
зато
встал
##спомина
##ляр
##пон
рес
прежнему
тря
начали
##овало
##рию
можем
##итен
первого
оказалась
мето
прошеп
дорогу
##дьми
##стые
пала
порт
обнару
комнаты
##тик
Дэ
показалось
бар
##лав
револю
бывает
Бог
##жите
имени
##женныи
вечером
##дия
эффек
##нению
празд
##щик
коль
впервые
Тебе
##пола
##ования
отсюда
шум
млад
твор
перек
кабинет
разно
стола
подготов
приго
пытался
##дон
подроб
говорила
пояс
плен
солдат
##пои
стояли
путеш
##илии
сторон
наро
соврем
##енти
Одна
ребенка
рели
Серг
почувствовал
##чок
Влади
ров
##жат
период
абсолют
Сем
##роз
сына
влия
##ниц
раздел
пози
##альную
узнал
роль
##гали
чисто
вста
раскры
##тка
ошиб
сожал
##шке
остановился
господин
нескольких
машину
вну
недоста
вари
безу
##пись
кула
бри
видели
шут
будешь
которому
опыт
##мые
##сход
##енную
Свет
отношении
сомне
14
пытаясь
##новить
##мого
ман
##вов
яро
любопыт
сопрово
вопро
##интересов
появля
##рым
поднялся
##жии
Пар
разоб
помощи
##пах
осу
Спасибо
Пи
решение
шу
##ненно
##мут
предполо
получить
жил
##мон
След
##пать
##стье
плем
##on
остался
##нк
хуже
незна
книги
сор
Три
##сион
меха
клу
хва
дого
полно
ваш
13
##скор
планет
страны
немедленно
##зин
каждого
городе
##думы
##ительнои
бросил
рассматри
удоб
Уже
улице
спря
окна
сон
##in
повернулся
##дро
трав
поспеш
ограни
защи
##нач
выр
главное
согласился
тепло
##рует
сколь
вести
отказ
трет
англиис
##ванием
неприят
составля
##шкои
повед
##нями
людьми
каза
воина
наверняка
письмо
наи
язык
знали
##стыи
дворе
##бормот
##редо
Джон
##жав
##тельныи
##ющими
практически
преврат
##влека
ближаи
истин
обязан
ближе
инстру
встреча
вскоре
##кали
##чными
мель
внезапно
жало
заг
филосо
пережи
##епенно
##ехать
воскли
##стях
света
хво
моря
полков
##росить
##ровали
##мира
##ул
чувствовал
##пли
наг
следующии
##en
##ческим
вернуться
св
##чено
##доро
сэр
чуж
##зд
оставля
##тура
открыл
прода
Еи
зов
прошел
предмет
бег
увидела
заво
француз
отда
ока
продук
нах
женщин
людям
зелен
##сен
офици
постро
##илл
положение
##страи
окружа
тет
участи
первым
##оте
##мас
оказались
##чих
изум
ума
рода
Дру
запад
движения
Совет
слабо
солнце
оборо
досто
семеи
##женные
крыль
Наде
силои
##давно
пришла
##лил
подход
Мор
наслед
##кри
временем
моим
виз
эмо
Доб
руба
написа
##стая
##евич
##ктора
увели
повы
Тол
решила
становится
##гар
беспокои
##лит
генерал
##пуск
##чила
Сна
жесто
облег
дочь
вслед
опо
благодар
компании
протянул
гне
телефон
насколько
растер
плечо
подру
Ос
писто
источ
кило
вал
##вав
хотите
##альном
плечи
гар
##an
##довлет
словами
##чел
воспомина
другую
боли
дороги
нравится
полага
##мущест
христи
пробормот
##фу
двумя
свидетель
реак
партии
насел
непро
реп
Эн
привет
конец
века
##нив
цеп
вышла
##ушки
мужи
стороне
нового
Челов
оправ
оби
усмехнулся
тради
нали
смы
понимал
велико
поздно
захот
назна
##дыха
##сил
суп
##яз
делает
зара
молодо
##сер
##дишь
Ника
другу
##рест
берегу
остальные
перего
Михаил
правильно
работе
##ноло
приходилось
искать
30
##никам
##стоит
Жен
чувству
принять
подумала
пусты
расстоя
сты
пальцы
вез
услышал
обязательно
гиб
##жныи
обид
##туда
солда
шли
Стали
##нович
Вто
удовлет
осущест
##тар
Никто
миро
ваше
Послед
девушки
##биться
стене
##бра
##ительным
пользу
лед
ушел
##долго
ныне
##биль
спать
##няла
199
вдоль
##елая
тороп
скло
##ах
думала
сделала
##разил
Сегодня
##щает
ист
наиб
##вами
мастер
##няли
##крат
отря
Бога
громко
связан
##пет
зрения
грудь
сро
##ковои
##яла
пола
##кции
##рям
проблемы
хочется
блест
предложил
спину
меди
национ
желание
пропа
появился
проек
сильнее
слы
##жены
Наверное
шан
наша
приготов
импер
защит
прили
##обо
публи
улыба
##чики
повторя
Оте
народа
Евро
##коп
понрав
##кор
заставля
Сте
заметила
влад
перво
захва
разных
вашеи
смотрела
смысле
Хар
##оле
193
двое
госпо
##тяги
Эм
##чался
##ниться
##елом
филь
Иван
##леннои
пау
побеж
времена
работ
суб
##ченныи
нужен
##слав
##емои
##еркви
леитен
группы
необходи
зерк
Вид
##ету
##олот
гал
схват
##щается
бом
##телеи
191
вошел
мужчины
##елье
отча
запла
посту
гряз
##жает
использу
странно
кат
сход
##тика
угодно
##яться
##лить
губ
углу
##визи
Буд
ветер
заслу
добавил
окно
##рета
##лаб
требов
Перед
глупо
мак
бабу
##ждении
букв
выго
чит
беско
связа
добы
##терп
беж
вп
##ственнои
причем
никому
##няет
ух
##альше
##цени
##жие
##лал
блед
новои
потря
самому
происход
Было
коп
Гре
заму
требо
отчет
покои
##пустил
Иль
поря
верно
##слов
Голо
Итак
позд
недавно
Андреи
##шет
##эль
противника
ваши
посы
##рыз
##ьев
##сф
уро
ребя
жили
двои
цвета
печ
##чика
##искои
невы
поводу
дальнеи
##чев
Ме
глубоко
##ницеи
##эм
мужа
Сколько
кан
##гнал
##жки
##рования
юно
Нем
##ительные
Герма
события
##ительное
системы
##дался
ладонь
##пку
##ССР
##оты
муч
##рович
Эл
##нили
##иф
муд
##ственное
комму
рассме
вынужд
##утся
центр
Глав
помню
власть
человеку
корабль
Реи
Чего
эль
учени
##сток
Эли
##ебенок
люблю
востор
фотографи
Благо
смен
благодаря
##казания
##пусти
##жку
кровати
##тает
ногами
водои
чаи
##держать
пуст
заст
Пом
жар
результате
камен
автомо
пошли
Мари
##овать
Али
##рец
##ющую
позже
##рых
осмот
корпу
##тельнои
напротив
##лым
шла
Кам
восемь
приро
##нови
Фа
##сив
##янно
отдал
редко
поддержи
насла
использовать
##вела
##тона
которыми
воспри
##жима
наруш
баш
числе
утро
##кала
##пустить
##нятно
воздухе
высоко
##таться
Пав
##чном
##ческую
отоз
##бин
##ене
миг
Похо
впереди
Кстати
Ост
новых
##руп
костю
##ине
крепо
проп
изуч
##ины
##женно
##рил
паро
раза
##ваюсь
посмотреть
живет
неделю
предпола
##гался
##хои
фон
небольшои
осве
винова
точки
зах
Фед
Деи
##чон
ору
запах
##коль
##казатель
брата
##лял
##ними
ситуации
размыш
рев
##енты
попытался
представить
коми
вон
вме
##стера
спустя
кивнула
степени
начи
твоя
движение
Соб
кара
стр
##рени
Луч
демон
каком
поговорить
универ
Думаю
##шеб
Мал
неви
СССР
оставалось
пусто
##жаться
Дер
##ссе
ата
отступ
постепенно
колени
камер
оза
услы
Ино
гроз
##гию
вспомнил
форму
учен
##сона
руб
##деб
##тим
Ге
##женных
кофе
бутыл
##вена
Даваи
наме
гри
торжест
поя
Куда
Чем
машин
##бые
памяти
Англи
Кри
поддерж
##гром
деревян
часы
##ченные
нера
##жные
##тол
несчаст
принц
напра
##виа
моем
##es
напомина
сосредо
иди
Кла
доктор
некоторое
Оп
сердца
нужна
##едине
ван
покачал
дура
##ятия
Два
пришли
примерно
капита
отмет
церков
поинтересов
пис
воскликнул
королев
содержа
однажды
убить
проник
Гарри
##мых
##овали
изо
закри
родствен
улыбкои
угол
смысл
страшно
решили
первую
допол
привык
наше
##луши
уити
##щить
Эи
оттуда
25
##жено
начале
ов
раи
выда
граждан
осозна
душу
страх
корабля
состояние
черт
большим
##несли
##екла
разные
анти
акку
платье
тща
пья
Оль
обнаруж
##нусь
остается
##шта
##ену
##ленным
##енье
весело
элем
обу
##казано
Лени
Стра
Ага
боро
отпра
Ры
нечего
герцо
сен
чрез
Ис
##гин
##ительности
псих
миссис
никакои
дли
остров
сед
тес
непос
Сергеи
крепко
одному
ат
##эл
##пара
уди
упа
семьи
касается
размер
##бок
##ляет
слуша
Сначала
##лян
скла
слезы
##баты
##ственного
##оборот
спис
собственнои
считать
подвер
##скать
всякии
вашего
фам
вступ
ими
вряд
Мол
маг
зубы
Какои
мыш
пови
##чился
##ствовали
доч
дыхание
##воры
сохран
наиболее
##бежать
вероятно
твоеи
##голь
количество
ворот
нед
Пла
##щался
лежал
##кинул
##илия
инди
приказал
горе
минуты
##езда
лез
склон
шту
##мат
прокля
зага
сопротив
запол
##онов
прист
воору
яс
##сю
реаль
случаино
выити
##гала
последнее
секунд
##ево
##торов
пошла
спор
##хии
##тября
воин
безопасности
заку
изу
существует
##шись
Кир
дам
тридцать
полицеи
Пожал
нашли
##ие
192
##оне
##сад
##крет
##дина
полнои
взяла
любит
Неко
нало
##ьи
##вес
расши
##диться
этими
сва
указы
##тели
выра
Оно
возб
##елить
##илет
##низу
большую
Чу
вода
##чнее
потре
рак
##ющихся
откров
понятно
старыи
голод
Люди
кожа
проговорил
союз
вин
области
девочка
##енными
секунду
крикнул
историю
остались
успоко
##крас
Бра
история
сре
##сот
цве
столом
нашу
##рение
быстрее
находился
каждои
Джу
нал
син
серьезно
##хит
взглянул
километ
взрос
любил
хит
распоря
плот
презид
нужны
месяц
брю
##они
дед
##кол
##лез
пожалуиста
видом
собирался
метров
множество
непло
##гну
сад
удал
##хар
Анна
мужчин
##яет
писал
враж
##чками
загля
Ком
Похоже
##лено
стои
имели
##мини
пан
засты
маленькии
студ
стена
строго
Девушка
##кадем
##вшими
нар
##колько
некоторых
##щут
спут
##дор
##чили
##фы
подп
##едливо
сообщил
освобод
въ
##град
заявил
Бел
##ительного
##ar
##чиков
искрен
стараясь
попы
ребенок
##нки
шка
положил
Интерес
геро
##дую
веду
##or
правиль
торго
Лон
друзеи
аре
##нилось
Тер
ждал
развития
специали
думаешь
##лои
Пере
тысячи
большие
Пари
##ратно
Александр
евре
изб
принял
Гол
##рование
##ехала
тео
сеи
знако
сказали
##эи
устрои
подви
вышли
сделали
окончательно
мальчик
преслед
##at
попросил
организ
Между
Сан
старик
твердо
зали
страха
спосо
обма
Иногда
память
##инан
выдел
предлага
поезд
ниже
##зма
компьют
захо
дым
присо
достав
произнесла
стране
леди
##ющиеся
Ад
абсолютно
Отец
##емыи
другими
возмож
аль
подозре
##ествен
пальцами
деятельности
недели
первые
ори
разме
##ША
золот
задумчиво
хватит
впечатление
##чены
идеи
##жных
разруш
##бии
четырех
буквально
христиан
принялся
спаль
Иго
доба
сига
близко
объяснить
средства
общества
повел
фанта
Пожалуи
##сегда
##зор
организации
тюрь
пя
Пот
Крас
неверо
Роб
##исы
##зация
широко
прево
бит
Зам
ваша
делал
##ждать
##дается
ногу
появилась
вор
связь
подумать
##иля
Гра
хотели
##зами
короля
упал
##жь
карто
Несколько
##ялись
лестнице
пет
конкрет
плю
плат
подар
##ину
скажу
ниж
расска
пораз
описа
знают
Вд
Мер
##бот
чаще
припод
##вшегося
Сла
разби
##влек
##стречу
большая
Таким
##душ
Север
сознание
волшеб
##лушаи
интер
Слу
##жности
бесед
пребы
умол
отре
жени
другому
##гант
восста
обез
смотрит
биз
выво
обед
девушку
дире
напом
##ольше
##чались
папа
##вета
##нина
дает
трубку
переход
восполь
Дан
##кт
##шуюся
##альными
следовало
Вик
вытя
Кажды
труда
скольз
форме
тени
раздался
##иского
посла
управления
останавли
король
шею
##тельного
##шок
гордо
противополо
молит
радио
##шат
волос
забыл
голоса
шев
чувств
пунк
##няется
лежа
##эт
магази
##аку
##ственныи
Нов
матер
Эд
прось
показал
##пил
тка
улицу
прот
##гнула
##ира
##тина
устало
вечера
пальцем
обли
повез
##зоваться
вторы
упор
##оны
дес
##шень
Поз
значение
шест
провед
##ностеи
ладно
замол
##шив
считал
честь
Кап
шля
машина
рассказал
Дело
изви
привод
ничто
Москве
вздохнула
##тике
##юще
Бес
##кипа
ть
##ленного
США
оцен
ждет
распола
Тор
финан
Откуда
интел
##зади
фона
отб
посет
профессион
Каждыи
удивился
делом
##ровала
шеп
будете
интересно
рассчиты
##ование
спеш
оставить
рассказать
Ря
посел
рано
государства
нерв
Амери
##туре
##щала
кис
Мон
начало
месяцев
типа
водо
душа
очеви
##енному
система
фу
##пят
##оват
отрица
##рят
##ляется
зная
лицу
предуп
##чия
вечно
##тащил
понадоб
пещ
прер
##говорила
яи
Фили
месяца
сидя
Бе
деиствии
причина
рем
дур
##бах
прогу
##елся
столе
выраз
##кость
Суд
голосе
сидели
насчет
##пример
зале
##даться
самая
отор
##жер
остаться
желания
дух
бумаги
опа
##ователь
дому
спуст
оке
Сы
отказы
сидела
линии
##нишь
Муж
##яло
направился
деревья
факт
направлении
очи
##емого
##обе
лесу
##ческом
услу
Вско
территории
ех
Господи
##стаи
роман
камень
такими
охран
кино
постели
мон
легче
хлоп
Подо
##щаясь
пробормотал
##ваешь
операции
##гим
##дите
энергии
##виду
##фри
##бре
исход
отправился
##сах
Вар
информации
выражение
##анна
обстанов
книгу
##пки
зеле
понимаешь
церкви
##жное
##спор
##рус
разумеется
наид
нашем
смогу
продолж
вку
теат
чудови
##ченных
граф
расст
укреп
##вил
поправ
##етов
##женнои
Человек
##ственных
прош
че
##боро
Эр
оставил
очевидно
##леб
зака
ответа
##ляться
хозяин
реки
исклю
Кажется
сорок
стари
привез
приходится
##били
неправ
порядок
##хнула
##тику
провел
##вия
поц
маги
Аи
немало
укры
имеют
##дения
Например
##ропеи
##лки
талан
всяком
имею
##ителем
##лив
поклон
кстати
звук
стоило
навстречу
лам
##щали
Маль
Женщи
##цах
исти
подним
ау
броса
##вана
струк
##нешь
##ногие
ею
##жествен
наоборот
##рут
ил
разви
отчая
связ
решения
площад
##бая
начинает
Мат
аг
клет
##ске
герои
бла
##алов
священ
ответить
освобо
##няться
##тельные
больно
пита
коллек
карма
днем
##ссии
взаимо
смотрели
событии
товарищ
сверху
приблиз
аэ
пах
Констан
Ск
побли
##нка
обстоятельства
обратился
худож
правду
##ительных
вкус
##гались
достои
условиях
раио
Нор
##бло
Ху
тар
выраж
проити
##щались
путешестви
Аб
Лин
монасты
горы
скром
##стся
Николаи
гло
решительно
дорогои
Каз
зовут
помог
доволь
##зм
предстоя
обви
внутрь
Ники
жизнью
##ступать
##шала
##ьет
##сои
местах
##ковать
достоин
кля
письма
око
##гнуть
собра
будь
Стран
новую
##ссив
Зато
учит
подходя
##твор
жены
деви
##кнуть
##еба
неуда
##деся
почувствовала
попу
##иор
##ивили
эпо
оты
##тельным
навсегда
сомнения
предупре
мгновенно
группа
##is
третии
работает
двена
строи
##менить
пал
##гон
##стьян
##ментов
заключ
встречи
долла
вино
мая
Какая
##рыва
Нужно
##скольз
выби
комплек
даваи
##читал
сущ
непосред
##нете
##туру
женщину
##рэ
целыи
новое
поити
драко
остальных
держать
твое
##щиков
##ики
22
##тива
##держал
попол
испыта
князь
побы
правила
Вскоре
соста
##ситься
штур
Рас
Восто
посвя
весел
знаем
яко
команду
магичес
пистолет
вдох
позади
Андре
##ющиися
незави
тщательно
машине
Больше
осталась
воде
##тором
##жих
ощущение
##чают
вось
лоб
##воло
ката
Расс
##рив
сапо
Эль
разрабо
одни
ито
достал
вина
##елась
Дмит
естественно
воиска
Би
##мена
уло
засме
21
##стям
приез
авиа
процесс
##тию
мили
Разу
##куп
##ута
##созна
оча
##исан
ухо
библи
##стым
##вец
Пра
авгу
##искии
переста
послыш
торгов
Генри
хватало
устрем
##фер
уши
возму
##ризон
честно
ян
удовлетвор
изба
##аги
##ститу
скажет
##бель
##потреб
ладони
##зован
##естом
##ован
момента
берег
##надца
привед
целью
работал
удивля
получилось
##дю
центре
слад
кот
##тку
вздро
Моя
кло
выстрел
##форми
##гают
соответствую
##чилась
Вне
Особ
речи
##итер
##бых
##руя
сознания
леса
восхи
Интересно
##димо
успела
уте
##бно
##чением
##лери
Обы
предна
##елла
##чении
##нулось
##ербур
##бки
поми
пыль
цивили
призы
##това
кле
знак
напа
##рош
посе
це
##алисти
##вшеися
оскор
обеща
русских
##влечь
воздеи
##цин
##рительно
дека
подчин
делу
ресто
Дар
техни
##чета
веж
многочис
##шель
Ана
Чар
##чествен
смотри
сц
означает
сожалению
Лучше
устраи
пить
светло
блестя
##сторон
разы
ам
другая
##жина
появились
возника
##тельных
отношение
##чаино
##ствуют
придет
##фици
поцел
попал
твоего
##емые
малы
начать
подошла
нетерп
поставил
учеб
перево
дали
##ишь
##шнего
##лями
Надеюсь
читать
##емых
стату
видит
трени
##ченно
##есед
наклон
перевод
сухо
впрочем
отме
разъ
##ou
Нас
##канчи
разговора
договор
росси
оружия
приним
превосход
благород
влюб
Ши
##ленная
села
Джек
чувствовала
##нг
беспоко
очереднои
иллю
рассмот
##итыи
мягко
успеш
лежит
рва
черные
##цвет
горизон
краса
##вим
Вдруг
капит
использов
обуч
показать
смеш
Гал
Том
продолжил
нашим
насме
поры
Хол
полет
##комен
экипа
Молод
напад
##гор
имен
стену
Несмотря
основном
жут
##публи
Некоторы
прило
усил
контра
##шено
##шко
##нях
отличие
шер
##суль
##енци
лета
прох
кита
малеи
большинство
ходу
реи
Глаза
таин
Нью
контак
пак
##шом
198
##ждал
самостоятель
прошла
большое
второго
душ
стару
II
фир
вар
Петр
##шали
##ьер
десяти
одоб
##пок
правило
клад
##бар
воину
темноте
преод
многое
начин
##ушку
бло
вещ
чле
пуль
бог
##щением
выско
нака
##шееся
##ственные
Впер
##ляя
блю
##енью
Оста
прет
путем
##кает
##еста
взор
приятно
##тю
разор
заранее
краине
##рости
##евна
архи
оцени
возвы
##риста
заи
скор
держ
нахмур
##al
колон
##галась
##ровки
уто
Бен
##щики
уточ
поинтересовался
информацию
удастся
##дых
23
дочери
супру
экра
япон
##ыр
вернулась
##голо
дост
каждом
заклина
прочь
##тера
помол
вопросов
Меи
замок
разгляды
командо
##киды
неподви
психи
Разумеется
религи
##алец
командир
рад
подчи
солнца
зало
смогла
##жность
иностран
чудес
разоча
##венного
##тк
ребята
сан
университ
любом
##вича
драго
сидеть
нел
##лев
##бка
##ительная
идея
##рад
доказатель
спасти
металли
Вся
24
Вооб
посмотри
Тру
стер
бок
настоящии
воспоминания
повторил
Фо
игру
прошу
##жным
##ковых
##елись
Ке
шагов
выдох
Веро
констру
Неп
100
незнаком
волну
##ленное
хотят
разгля
##щет
Жи
Дра
замуж
держал
##ссажи
Дон
блес
Никогда
продолжала
Понима
безум
тоном
фло
останется
##ченнои
##шав
Черт
##чало
отъ
##лялся
леитенант
сф
кровать
обре
ярко
50
трое
спросить
внизу
примен
##доров
прем
сотни
кровью
##нье
Фи
ответственно
Вит
ходить
встав
относительно
##ческими
являются
##пин
уверенно
Василь
предложение
одинако
бю
##нья
врага
черныи
обоих
ваших
телефо
вен
##часа
языке
##каи
спине
окруж
пришло
доход
обернулся
ухмы
схватил
жизн
одежду
деиствовать
##вии
##иских
196
офицер
Кур
##циа
расход
суда
подняла
##ию
промыш
обита
мнение
##аз
запер
необходимости
тотчас
##довал
иду
##тельное
ряд
##гро
раду
##вому
космо
##шнии
провести
здоро
##циях
забот
обыкнов
небес
##жка
отры
Казалось
##мить
195
##тру
кресло
ехать
Над
Боже
заниматься
рассе
##блю
##нор
выбор
##бым
Однажды
##мель
Филип
ква
##выр
##ителями
Бри
бежать
улицы
невольно
##тории
##ступает
опасности
##he
Ната
назвать
зря
воиск
привя
##чко
##расы
Мама
играть
отвечал
сестра
регу
девчон
шар
потерял
прошептал
##ество
готовы
трои
словом
раздраж
##щика
Ок
прошлом
семья
счастье
позиции
пил
хорошии
единственныи
##росил
специально
##цент
##шении
##жного
##фика
случаях
XV
ключ
судя
предела
собесед
Среди
удовольствием
старался
распах
Тре
оказаться
прикос
поидет
Чи
богат
знания
Уж
##сию
напо
##елы
анг
хватает
Виктор
обеи
формы
огра
Алексеи
##кет
испуган
ничем
Некоторые
##водить
главе
экспери
##тья
мис
роско
отлично
далее
парт
симво
каждым
уга
Особенно
мин
заметно
пятьдесят
##воров
##лая
##казав
полю
##феи
готова
##тиллери
первое
еж
первом
поим
##руют
ласко
##it
силах
радости
поверхности
##пив
жид
мнению
брод
верить
##овала
приехал
обсуж
леген
щел
##чешь
##рост
нашла
вывод
197
тиши
Много
подчер
полковник
способен
обнаружил
##нится
крес
сно
Шу
##чью
столу
##щенно
воздуха
будущее
Мало
Вообще
деревьев
частью
##ьем
выта
шести
невест
солне
незамет
##щенныи
##алеко
отозвался
доступ
дю
снима
увидев
##хли
хран
называется
##пая
Джа
удивленно
парня
чрезвы
тему
думает
##чах
##жан
вещеи
верши
написал
сидит
напоми
Рабо
бросился
непонят
название
##шев
приступ
сцен
зел
##мощ
##пел
рождения
хло
самую
попасть
продви
##способ
Согла
словам
мам
крик
проблема
отп
Федо
жену
##ительность
##клад
запом
еле
делают
вспомина
Бело
сх
сведения
сда
квартиру
лагер
преи
Исто
##ып
опред
##ланд
сте
Первыи
забыть
##ерами
соедин
##овательно
серебря
огня
##бол
лаг
слышала
происходя
зарабо
Время
##ич
согласно
##хожу
пообе
##щихся
ощут
чувствую
##ликнула
писать
брига
##рость
Мил
рассказывал
запре
##нутри
вспоми
##ниеи
сигнал
воздуш
##ваете
Анто
сель
положении
това
Рус
непр
сок
палу
Германии
##уп
больших
нарко
##лож
Един
награ
ез
Солн
затя
черно
возгла
преимущест
всякого
снаря
оказывается
##стых
понятия
берега
##енька
последнего
гостеи
Франции
ворота
логи
##жало
подальше
##женная
прозву
отряд
службы
фра
выжи
##вах
колле
смысла
##рока
пространство
жаль
Марк
зала
форми
заговорил
раство
##ъек
религиоз
призн
##валился
##ченным
уверена
инои
доло
Тро
спасибо
кин
катего
оскорб
имела
школы
успех
##моз
##носит
Госпо
рим
##тныи
##спорт
возбужд
Маик
##кур
Петербур
##ереж
крестьян
##хватив
реда
знамен
женои
##лаз
полныи
самоу
##дж
завед
ушла
лежала
краю
Рича
различных
число
##емая
##ждает
##нутся
пулем
отра
##совои
##министра
хмы
Какие
воине
доми
совмест
##ражении
лиц
##стит
реша
горь
##илы
исключительно
дверью
понимать
карман
принцес
твою
##махи
##нек
причин
говоришь
вида
лав
противоре
Алексе
##рун
##енькии
потол
горло
ударил
артиллери
Пе
значения
техноло
##елиться
##ванию
Доро
Григо
##чаю
снял
пля
форм
##уя
проч
сзади
Ак
игры
спло
успели
##хваты
последних
плани
получается
днев
телом
рю
поможет
пассажи
поцелов
конт
##еин
##риться
##бою
носом
глад
##стами
уровне
прон
Ленин
счастью
40
сове
##мать
европеи
воспита
вампи
##зер
сторонам
тишина
прод
семье
начальник
циф
##быи
никуда
Укра
неот
деж
##ведом
лок
туман
распростран
намного
Изви
грома
перен
##илу
##чины
Москву
проби
микро
бара
подзем
##цар
##женным
участие
##нован
прошептала
тарел
пога
взгляда
переме
бод
находились
выглядел
настои
улыбка
##зости
инжен
здания
долларов
главным
значительно
убил
живут
оставаться
успокои
Второи
хозяина
сигарет
эмоции
дья
ожидал
Иор
радость
##гаться
трак
прошли
живу
пыталась
##елями
Ван
встала
Скорее
##бовать
сия
##стую
##рэн
роли
Прежде
электри
станции
##ic
##чность
родителеи
свадь
похож
дерева
родители
##цер
двадцати
стакан
справедливо
животных
Олег
последнеи
большого
принимать
хлеб
Вин
##кз
видишь
##вающии
Мария
##кован
##чалась
##бит
##оту
атак
##ваны
выпу
сумел
крат
меж
следы
Многие
ледя
##рямо
##лух
послуш
задерж
Ам
##спе
вовремя
##кер
ков
##вшимся
лошади
Лицо
завод
Стар
##чком
Более
##визии
судьба
получится
лист
открыла
произвед
##иду
уровень
вторых
##ково
##лила
кусок
опро
демокра
##ологии
диа
##хим
уса
фла
любого
управля
##ковые
следом
кусо
накры
Богу
школе
##ове
врач
подобного
полож
всп
##шками
##тием
заинтерес
##новения
сосредото
##чалось
целом
гигант
насторо
неплохо
заставить
объяснил
звуки
##ковы
реали
##народ
##инг
вещест
##нел
заканчи
площади
поставить
хро
донес
Шар
открыть
##кну
погла
##гнать
##жут
##ович
##няв
воли
пятнадцать
взяли
приити
живых
философ
дожи
##бан
умира
почт
##тнои
спаса
Иис
звон
зажи
ведет
применя
Знаешь
настаи
##ственным
Дени
##летел
##полез
отки
вспомнить
Зак
##кови
природы
ство
аро
посреди
большеи
чинов
##чам
Ох
прозра
чернои
капитана
купить
холодно
пишет
брови
слушать
лени
##толи
мело
Видимо
##рабли
##где
губер
опер
глубине
Джорд
##ворит
Ги
Вен
кресла
удовольствие
##гель
Иванович
помест
подпис
огромныи
##слу
ри
возразил
поверить
огляды
##гаю
заставил
сверх
мысленно
старого
##кости
##воро
сго
ля
##бал
ногах
Ман
нераз
##ерия
окра
Будь
##носи
Причем
настоящее
красно
топ
мат
русскои
##le
употреб
повезло
передо
шах
кал
непременно
повес
##ватель
Владимир
причине
наружу
Двер
##рачи
тень
планы
указал
сумас
Остав
Фер
26
##дныи
считает
любез
Ои
##строи
##стыми
##мами
Запад
ноя
боги
Сталин
повернулась
##тору
полном
надел
симпа
сдержи
##чне
недоволь
первая
##тическои
##луч
зи
реги
подобно
##тные
ужасно
аккуратно
самим
Лишь
рекомен
понимала
##ленную
активно
смогли
маиор
Жиз
населения
##нько
верев
Господь
отчего
Кита
велел
Смотри
вру
недоум
отцом
##бь
оку
##тных
##шил
придума
желая
прим
боюсь
коридор
остановилась
дар
выстав
##ливыи
восстанов
##ot
Кре
##тивнои
постель
дядя
привести
воскликнула
идут
несом
##есо
янва
заметить
воскрес
условия
лабора
высокии
квартире
##цкии
увидели
палец
естествен
жила
делали
драгоц
дополнитель
##роди
##лично
полчаса
заказ
Бор
Ир
##циями
аппара
##драв
нелов
патри
##таи
ранен
Гит
функ
впло
фут
Весь
снег
девять
##ново
склады
умень
огнем
эн
Опять
##читать
##носить
духа
##зво
Павел
##миться
класси
удержи
Точно
##нар
старшии
Сли
##ставив
механиз
получили
профессор
##енько
##дила
поднялась
удара
##лали
##мии
Кры
##ляли
##тана
сложно
вред
Сво
страте
отдох
картин
##держа
Вместо
27
##доволь
зависит
##ительную
промол
##днои
невиди
Голос
Какое
обход
##итых
подобных
мною
Поль
создать
раионе
Почти
##рисов
выходит
##кси
##зар
лихо
##жо
##енить
стоять
рам
##тес
грубо
закрыл
##чена
Игорь
каждую
поса
настоящему
гвар
груз
нормально
нежно
Полу
истреб
академ
кир
запи
читал
приме
##уса
коротко
запро
вашу
##ссо
##ленными
опла
##люсь
Судя
Мир
##мосф
хру
заход
преодол
##алеку
понимая
Джен
##рудо
спин
##мел
##юза
Одно
##яя
##фии
конфлик
##тке
Мед
дорога
кожи
##мум
вещь
Ник
Исп
передать
сочув
кухню
Уви
администра
школь
белые
##нился
плы
вслух
##ениями
убе
Че
##надцати
Завтра
обвин
спер
гг
подобное
отдела
выхода
Поло
живои
Тур
##зои
скорость
День
крово
##дят
фыр
курс
шанс
##хан
пальцев
полиции
рома
продолжа
существа
##тических
28
скажи
познаком
##ениях
##емое
император
##мирал
Коман
километров
срок
возраста
радостно
обществен
##пами
##хажи
Иди
Рядом
##ционнои
приг
##мысли
представляет
##тельная
мечта
##щенные
энерги
##елок
книге
натя
##казание
недель
ранее
поворачи
домов
##вающие
князя
Спо
русские
ситуацию
##ос
добраться
индивиду
связы
невероят
лошадеи
пронз
предупред
Мэри
средств
Высо
послу
будущем
герман
царя
фер
хватило
преды
##товои
главныи
языка
##полу
Оли
вероят
стул
собственного
оставив
обор
планеты
##пози
уровня
лето
белыи
##евид
##щиеся
повод
мета
монет
рассказывать
##тивных
сказано
копи
##помя
болезни
предан
прекрат
Нев
спал
понимает
запу
##няют
проверить
##ерии
края
прошлого
военных
Фор
##толо
##бие
паци
слышно
привлека
косми
примеру
пытались
дивизии
##бежал
##яю
выдви
перевер
предс
##мерно
офице
проиг
суме
услышала
коня
кно
##ковым
##венное
погру
поняли
рассмеялся
ужаса
империи
190
боялся
говорите
фев
электро
везде
корабли
опасность
провор
проще
разнообраз
молодого
##овании
вернулись
маленькая
новая
##енях
потряс
##вности
##ителям
апрел
прел
происхо
##никах
Мисс
##бина
отсутствие
англича
##шнеи
##тори
стрель
препо
##рана
шлю
каждое
##мс
##воя
##23
состоит
засе
##сюду
разру
Лор
втор
худ
Капитан
спец
вле
ветра
##фель
Глу
##креп
журнали
##us
поиду
##el
напу
вошли
Дал
основе
##еливо
простои
##симости
Пого
вызов
эп
очевид
настав
великолеп
##вие
##лэ
член
шее
кош
всяких
##лами
##ЕН
##тиви
надеюсь
лежали
##тих
врагов
экспеди
сдерж
молчали
##жди
##грать
отцу
##пен
поу
##новиться
положения
автор
дождь
##гото
Зо
закричал
прочим
##нан
раско
##гри
##чиком
учитель
документы
крест
определить
москов
Земли
неизвестно
маленькои
##тную
перспек
посад
слез
книг
личности
соеди
вытащил
Хозя
грузов
мальчика
запрет
##чья
Кли
выглядит
дипло
дежур
Твои
самолет
##рованныи
левои
предыду
отка
##десяти
##хватить
понимаете
##ложил
годов
ждали
контроль
команды
порои
Бро
##жант
вернуть
передви
сделан
общего
##пя
Поскольку
Даваите
##езжа
будучи
доби
Ответ
##хая
одежды
подобные
бесполез
просил
ущ
отношению
русского
распу
поведение
видимому
##хватила
воинов
##послед
##заб
кожу
следующее
расчет
##далась
колду
мыслеи
вариан
Нельзя
имена
кости
острова
вожд
камни
##гивая
дала
##откры
попыталась
счастья
##лую
Вес
##сора
Серге
атмосф
##жную
искренне
##гается
##дир
##рщ
Василии
долг
возьми
##наде
членов
вошла
Вет
Кал
твоих
шпи
##гры
##явить
адво
стихи
Ус
##предел
##щами
соблю
марш
##дри
солдаты
##нялись
старои
достиг
какими
Вопрос
неод
сним
называем
гнев
лекар
опустил
Англии
чувствуя
##роваться
##чник
тур
итоге
длинные
##re
узнала
##ниями
##ворот
революции
изменить
Мистер
культур
наверх
##илла
##итя
##тков
происходило
лы
##син
аресто
##тические
устал
законо
думаете
сдви
##стого
Привет
пласти
Геор
деп
##яг
##рук
масло
звезды
культуры
##СТ
ски
немно
фар
Силь
отдать
##илов
Кня
заж
бесконе
подав
собирается
взгляды
скрип
##тема
тен
выбо
расслаб
входа
систему
уступ
молодых
правои
##др
##трон
Такои
Тар
услышать
Смер
агре
##щалась
##одо
вопло
прожи
##ушек
Бол
##форм
Женщина
смех
Прошу
чт
контроли
Саша
Импера
постра
русскии
кармана
вежливо
подвод
выру
нанес
задумался
воле
распростра
кисло
пли
встретил
##фов
борьбы
пен
темпера
##нен
погля
гаран
Ольга
Мать
Был
Макс
##тивы
рекла
кресле
лошадь
##зова
хала
ровно
царь
ох
##еми
подно
искусства
Москвы
вариант
##илая
класса
причины
суть
##яют
приближа
подробно
кабинете
интеллек
губами
адрес
##уют
подлин
одет
воль
##чав
старин
леп
данные
совершен
сексу
улуч
взо
создан
выдерж
покупа
Цент
медицин
деиствие
дово
##ждая
старые
строитель
слав
остановить
покор
слышать
##бую
оф
ожив
##шатель
Скоро
красо
##ленности
##альд
словах
##нением
##сали
способности
поту
привлек
здра
##щены
описы
телеви
пад
ушли
отвечает
прости
зер
приходит
сути
упомина
##лился
##город
требует
молчал
убеди
##иские
##зву
##товал
##лера
препят
настроение
##пада
вскочил
лек
Александра
предсе
анали
направля
##тальян
##едли
некогда
результат
##чности
неба
сма
оставался
республи
изя
оружием
вре
предус
##кана
##чт
высокои
несча
называют
находя
придум
лиф
ослеп
##порт
деть
безза
мозг
запас
автомобил
куста
августа
Фло
расслед
смело
##раши
исследования
невед
холо
обещал
Боб
шепо
##жном
убежд
представления
##чках
##шенно
мясо
##нившись
небе
прото
уставился
Генер
махнул
небольшо
##стите
верю
посред
сестры
кухне
инстин
##кнув
середине
сбор
оглядел
##жная
аген
##ниях
ждала
генерала
сынов
Викто
##словно
Син
неприятно
##лях
##хие
##кового
взглянула
тва
Говоря
обрадов
##шестви
##нью
ябло
вышло
##ровь
##езде
одер
видите
бывало
##рях
июня
##альности
растя
##шут
библиоте
##стнои
Само
XI
##елли
##скал
##последствии
жителеи
догады
Христо
сбо
Нео
коммуни
##нюдь
упала
всеоб
сумасшед
##хами
недостаточно
наблюдал
##шается
Скажи
Тан
##жимая
осуществля
Ат
незаметно
##еме
ступень
фаши
Кара
прида
бре
театр
##ерб
##рог
обществе
провин
новым
попер
призра
Кристи
##рона
послал
проку
молчание
красави
признать
спек
женщинои
ини
нере
школу
##тивные
позволяет
##жению
##кивая
сут
##разить
##шался
##хота
рассп
##рена
любила
нелег
био
шаги
Иначе
июля
лен
светом
##алии
позволить
##ющимся
миру
надежды
##лыми
силами
назвал
выяснить
##новои
##шир
хищ
заба
Рез
согласилась
учиты
качества
протянула
##сятся
белои
общество
##кли
собираюсь
Тихо
Главное
##новение
бросила
труп
Оба
теми
##редить
хорошего
##дки
Пожалуиста
шлем
слушал
магии
##ванныи
здорово
##тического
объятия
попытки
распла
Шта
отдыха
разом
Сэм
дорогая
имущест
еду
чрезвычаино
фотографии
оборудо
половину
нашему
встретиться
сохранить
сильныи
кораблеи
дворя
##душно
катастро
двигаться
всад
чудо
оборот
вспомнила
29
покрас
бух
невин
куз
звезд
Кали
##om
заблу
вли
претен
бого
умереть
памят
##просил
скажешь
изменения
стоят
ког
Дом
снять
окажется
числа
Рим
неподалеку
пристально
##мости
Тебя
фоне
##кров
Россия
##шеися
казался
##ложить
влияние
Лев
расстоянии
Понятно
производства
отказался
графи
##чалу
старика
Земле
спрашивает
рабочих
семи
##рованных
бизнес
##раи
квартиры
поспешно
вернется
транс
спир
состояния
пожела
баталь
пытается
наем
##руется
столк
Всего
донос
вырос
каждому
правительства
великии
форма
хму
столо
стремительно
##стив
покачала
зав
Кер
##немся
##зап
потенци
дерево
маленькие
едино
##чите
погруз
примет
задача
деиствительности
шку
поисках
племян
##жке
четко
концу
парти
##дито
Прин
будущего
закончил
##рыми
взры
##рованные
сентября
чемо
##кина
##тическии
Вон
несомненно
##пора
##дателя
##вающих
##ваися
##ционных
упомя
скажем
##честву
##жник
Ут
##нке
воити
Такое
отодви
##сып
хлеба
двереи
Даи
фе
##стил
Слишком
зуб
частности
языком
армия
вынужден
Посмотри
замка
воспринима
поближе
книга
Сама
##тиков
недов
убили
принадлежит
##стныи
Хоть
именем
находилась
сож
ходил
взрыв
##умно
посторон
рыба
выража
##ОВ
Лиз
прог
##итые
Иванов
подле
рост
повест
ситуация
получила
правительство
свободу
огромные
##щество
утрен
ногои
сцена
испан
невер
ощущения
сопер
темные
Слушаи
Деиств
##зия
##пании
данных
движением
##ушке
Такие
избавиться
телу
бесконечно
волю
здание
продолжать
##тивного
шеи
Бед
##шних
##вшаяся
загадо
торопливо
поверхность
негром
##крови
автобу
подняться
даи
обозна
столет
иску
##риа
любовью
гражда
штаб
каб
отстав
прислуши
зла
включая
фронта
душев
написано
##жел
##енькая
##яется
вашим
защиты
последую
##вающеи
Обычно
юноша
деятельность
##нныи
месту
крю
##зок
##жусь
судьбы
риту
поднять
женщине
газеты
##риан
портрет
меры
фраз
##уголь
Снова
##щенных
исправ
огор
талант
Максим
поидем
осведом
напи
##тившись
Доктор
телег
gt
##жек
##писи
век
боевои
##елья
##житься
Поидем
лев
захлоп
служить
побе
благополу
популяр
компьютер
##даю
##енья
показа
встать
подарок
занятия
большеви
избе
реши
Рис
##имои
уми
церковь
Внезапно
спуска
зубами
недолго
##чеством
##гнув
ожидая
картину
мл
##as
##сье
говорится
субъек
отнюдь
рожд
объявил
приб
Дверь
успокаи
склад
Хан
бессмыс
лом
##щаются
удивительно
захотелось
сравни
стану
дрожа
##ждои
камня
плеч
службу
итальян
вправ
храб
изли
пользов
Этого
##дию
исчезла
##едет
Степа
роста
девя
Бли
##фак
Жу
##сед
основании
соло
##щают
##лку
решить
упраж
чувствовать
остальное
буль
неувер
собрать
разобраться
Кан
добиться
коричне
убииства
##начале
Мин
народу
полное
пояснил
картины
изготов
наря
##жего
тяжест
сообщение
корм
суро
##гляд
магазин
зата
уважа
##поле
отправиться
уче
##жался
блу
миллионов
##стным
офицеров
международ
поти
клуб
повре
вцеп
##паться
пари
##естно
пь
##тав
##мся
Импер
неф
Деиствительно
даст
##уз
начальника
##яр
##et
Едва
соблаз
военно
создания
##вившись
масса
##вольте
здоровье
обнаружи
максим
##есс
Совсем
непосредственно
пеп
##ченная
волны
щед
угла
обру
адре
улыбаясь
##ственная
##рожд
волосами
банд
наре
предостав
##щит
##еча
ремон
##ненныи
иро
лор
##зеи
избежать
##честь
недалеко
заговор
##дравству
##казала
выидет
ослаб
Бал
##ард
накло
видя
телефону
Гру
соп
добавила
безраз
перестал
рта
октября
бывшии
обеспечи
бутылку
##раздел
Лан
Виль
##чаться
деше
##тивныи
собиралась
Неб
Але
девочки
находятся
##ентом
препода
называли
требуется
организа
Лондо
появилось
собственных
проговорила
меб
##ститут
##точки
изъ
повернул
##думан
мировои
забол
Прос
##шне
Тя
терро
данныи
доктора
сало
теории
черных
сокра
##ывать
##щеннои
##ализма
Карл
огне
уша
##тации
отва
кирпи
считают
##вис
способность
##ранда
##одно
раб
Вместе
##ЕР
##кру
разбои
бою
##ику
восьми
##исе
##новес
лопа
гим
пороге
серде
двенадцать
вопроса
##дце
##шегося
надеялся
уничтожить
общеи
двора
очереди
толку
расстро
конку
##рело
##едко
округ
соответствии
кас
##шают
##воем
нею
заняться
##епри
решет
подтвердил
марта
##риса
Дю
старых
попад
##ровав
автомобиль
##чаются
Стив
грана
всякои
остатки
Петрович
странное
литератур
Прод
##фона
поворо
##парат
##ельно
Лег
Марга
коз
карты
тип
развитие
точнее
наве
отврат
Господа
уют
принялась
расто
детства
назнач
##вающего
##ятии
Сара
точку
##чению
отвечать
туал
мрачно
##лах
навы
нез
судоро
этаж
Ваше
границы
похожи
предназна
встречу
##мыми
собственные
взвол
незнако
##пускать
нахмурился
##еленнои
кают
последствия
началась
вызвать
располож
любят
Кру
относится
зар
Джер
сюр
##щание
отрез
встрече
оса
поды
военнои
проводить
хмыкнул
данном
##ющегося
парни
Всем
лорд
постара
нара
увле
вторая
борт
реальности
зим
гостинои
Пло
оско
##поль
написан
преступления
сража
уко
##енко
опасно
вскри
плащ
любить
Ль
вашему
объедин
высказы
##кот
выиг
знакомыи
розов
зате
Волод
местных
оре
Ека
казалась
##альность
##еха
сопровожда
принято
смут
передал
анало
зрели
гли
великого
удосто
Подоб
хвост
двинулся
чудовищ
постанов
приоткры
##ляют
##ровна
бабушка
##пела
детьми
свал
погло
девушке
##кло
Знаю
дабы
устра
##аке
ци
##нись
убивать
Прости
опаса
сообщить
##ннои
класс
##енции
остановились
фигура
колод
оставили
юри
захват
белых
моно
храм
небре
помещение
##иски
##уждения
ладонью
воп
реке
поток
##ковыи
спро
##мость
60
##вору
черты
забыла
Пор
##галось
господа
##чились
31
пожи
каждая
##щена
##поко
ссы
Лес
##нося
Ричард
##ch
Дальше
##итив
изящ
Государ
протяжении
##кта
кладби
разговаривать
отчаянно
Жан
Откры
хорошень
неудоб
предатель
последнюю
дворец
давать
##оруж
неум
справа
поведения
завое
Простите
моро
начинается
становилось
потребу
приказы
##пустили
якобы
шепотом
внезап
стес
##чаль
рыца
нежели
воспользоваться
успев
Борис
костюм
журнал
##зовать
##алл
лука
##ТО
раски
##вато
возвращаться
Итали
ловко
прогре
Христа
сделает
особого
Верхов
прибав
джин
выходу
возмут
посу
справиться
заметили
добавить
щеки
Словно
младен
присоедин
несу
плане
##нутыи
сокрови
семью
дре
слышали
разры
##хотвор
##подоб
смертью
выпить
##гети
хими
предстоит
##вязы
снаб
кабинета
дважды
наблюд
прошлое
жене
##олго
позвонил
Центр
представление
возрасте
lt
раска
полную
кольцо
##жела
##анные
бокал
пости
##эта
целую
##тью
срочно
слева
##нори
условии
##ol
эмоцион
вашем
Сдела
Жел
##ане
доса
##чьи
##хоро
карь
скре
умел
надежда
Дево
секунды
предвари
пробеж
коленях
отчетливо
ош
января
измер
##радо
заря
##щины
смир
пота
стандар
шагом
занимался
любую
положила
##даи
матема
##тилет
декабря
Гля
##рованнои
огромнои
Ради
Петро
послышался
##бородок
диплома
1123
Мел
канди
уходить
деревни
рада
Гро
зме
##ковник
отказаться
рит
крики
Совер
сущности
крестья
##ленность
##III
толпы
##шиеся
перенес
отвра
свободы
ресур
сделаю
способны
началось
персо
считали
неведо
покон
узнали
список
звали
##берг
мозга
Кен
ходе
покинуть
человеческого
стук
полка
##еку
опоз
проро
##оди
усилия
заре
такси
ребят
расстояние
35
##кви
##шенныи
разглядеть
расста
##держаться
змеи
##видно
деревне
##шало
главного
собаки
зависимости
##вою
апреля
##емы
##елях
владель
##ряс
бата
кафе
давал
беспомощ
огромное
текст
##стные
Долго
выглядела
прика
особенности
собою
Солнце
##чишь
имея
##тного
Федор
психологичес
процентов
флот
##альному
считаю
Лиза
капли
Вера
201
отношениях
попросила
резер
родился
сравнению
свод
Европе
Фрэн
удавалось
герцог
императора
##ровка
инф
подраздел
##чков
##гани
Ян
интересов
##щиися
сотрудни
физ
задумы
страну
заби
##ющеися
челю
нервно
##нутые
##шихся
Сид
присутствие
скон
плечу
запя
прила
Патри
масшта
землеи
узнает
Могу
погляды
привел
одежда
предпочита
##стон
миром
наблюдать
корпуса
##лили
##нутои
рублеи
##жалась
##il
отверсти
двоих
науки
Господин
дают
видн
глава
наки
имеется
простор
отправились
человеческои
распа
сю
соль
189
подбородок
Жизнь
чужои
выпрям
наби
информация
поо
Наш
богу
Сп
##овину
единственным
ежед
покров
##зает
Фе
Евг
Сен
Ган
делов
##зав
станут
цветы
стеклян
чувствует
собака
помнил
прибыли
засу
Фри
побереж
изменя
берем
третьего
скрыть
вя
знамени
лбу
друзьями
обратил
черного
кавал
фин
##рыгнул
удовольствия
движении
уны
##ционного
##приз
##нуне
Попро
Старик
глот
попробу
окну
Фу
представлял
круж
##торе
уехал
Вокруг
золото
городу
самолета
Объ
потери
эска
писатель
Слава
##дка
роскош
умерла
##тался
##ванные
убииство
различные
##хал
Земля
Софи
блок
инспек
независимо
полтора
исключением
умеет
ноября
винтов
делала
##дие
##крик
немцы
явился
зрит
радостью
ваго
печа
прибыл
обще
подло
любое
засмеялся
Жаль
нигде
##еверо
борьбе
##чивая
##тир
##кнули
рту
броне
вдо
называть
основания
##тль
жители
разница
бак
##сан
туск
##гана
плотно
прихо
Антон
непреры
##фом
делах
важное
Ум
Хочешь
агент
Странно
##еиз
##имся
способом
опыта
крепости
шло
гран
снаружи
##ционные
боевых
Наши
длинныи
привле
##трин
надеяться
лучших
фантасти
лагерь
зары
придержи
##ступи
##енка
Буду
старше
скорости
поморщ
глупы
насмешли
Сердце
##щаю
сочета
приобрет
пропов
##лова
собрались
инициа
позднее
##ходи
ждут
существование
##уме
свед
мистера
прор
традиции
Москов
сиг
##стик
подходит
свободно
вопросом
Кни
Дома
группу
приняли
молодые
##талки
III
##нис
подал
этаже
результаты
##женную
##тным
Дела
##писы
пру
работои
разреш
винов
учре
##джи
песни
остановил
детстве
покло
ожидать
##фес
замест
кругом
##итки
##чур
случится
матерью
щи
враг
очки
потеря
откровенно
##чивать
пустои
продолжали
написать
бросить
уму
колес
Питер
Лис
##гими
Еги
мяса
верил
бывают
курсе
предме
##есси
ужин
##циони
Отс
Эх
##ьями
толпа
старо
Чув
тридцати
приста
переод
послан
Папа
озера
командира
гост
газет
##илию
Вероятно
Бур
нравилось
иска
Коль
мужчину
народов
регуляр
##рением
##туи
судьбу
судеб
хри
поцеловал
президент
искал
стекло
сутки
Прямо
Пола
##шние
##щено
красныи
вражес
показался
удивление
Божи
Киев
##коне
позволил
могущест
##лужи
посове
гибели
собрав
системе
##тировать
арен
человечества
##имон
таб
конвер
ящик
посо
начинают
работали
##тельную
коридоре
##дные
опустился
стекла
детали
Оче
успеха
##стных
пыли
впоследствии
понес
существования
вызвал
поси
Оле
##рованы
пузы
церемо
втором
берет
обоити
сунул
удивилась
фигур
учили
рек
имело
Ибо
сби
выдер
несп
избран
находиться
странным
всерьез
удивлением
насы
Обе
улыбку
роб
пользоваться
Аг
образов
функции
целиком
##хам
зеркало
заки
процессе
Подума
удерж
опубли
предстояло
##вига
Маша
выст
Марина
сесть
сплет
пальто
реаги
Поли
виноват
##чуть
Нед
убедить
твоему
задачи
замы
##ствовало
возникает
перевел
##ствующих
подвал
##вее
боло
сможем
собирались
робо
Мужчина
цветов
притя
маио
армию
оте
бил
скоростью
##ебре
побежал
##хитек
##АН
проси
епис
верто
роднои
лун
характера
иско
развали
доказы
думали
обеда
##шлись
пожала
сочин
карту
равновес
рассказала
разда
признался
Рань
мужик
##пка
##раля
стрелять
##шишь
##жины
вернее
избав
сможешь
сомнении
руж
##нела
конкурен
названием
познако
преры
давая
зо
##бже
##вность
компания
Ели
##мены
фаль
##еться
##мия
отрав
закрыла
хорошие
##мара
чьи
кроше
замед
##нуты
отряда
Такая
##стров
Эк
принципе
пространства
самих
сжал
исче
обороны
ожидании
Верно
Раньше
прибо
Хи
##лева
превы
##гиба
криз
замо
пеш
защиту
оттого
природе
взаим
вторую
тяжелыи
мани
пламя
доказать
##исать
сверка
твоим
Насколько
цы
дне
британ
вела
Вспом
##дена
Европы
ориенти
стя
##ографи
##шаяся
##кона
казались
Свер
Мен
вылез
славя
господина
требования
симпати
Спу
греб
высокого
##женными
марки
низко
гармо
заслужи
Фин
успешно
одол
финансов
интересом
отклик
консер
переж
##лушаите
разговоры
##ерие
##гаи
летом
##ковал
##прият
появляется
Утром
##нялась
провал
канал
##чному
сумку
табли
##ляла
сержант
ласково
предла
##щах
оглянулся
бросилась
слава
Шо
жре
раион
Вроде
Мит
##ровку
остановиться
подми
выбрал
новости
Ше
осматри
взглянуть
гуд
боялась
осуществ
##ешен
патро
##ждением
задержи
##пед
государство
Ол
присоеди
борту
золотои
надолго
упо
даваите
хорошая
погу
Говорят
умы
клас
зашел
попробовать
полным
Анг
аэро
##нели
птицы
Петра
##мотрел
##орети
Пан
недав
оставались
демонстри
##равить
ухмыль
стоимо
персона
мадам
крем
##ждали
заявила
облом
указа
Вод
ощутил
порядка
надпись
спуск
холоднои
Здравству
пех
##пуль
##зах
##года
Пришлось
дыма
еды
##нера
ответственность
зде
Ог
охраны
старая
военного
гул
##шни
коню
делам
прен
подела
##пустила
##разила
аристо
члены
Артем
тяжелые
##новы
предш
##брь
сыном
братьев
сосредоточ
##лам
выи
согласен
череп
##носил
политики
подошли
Говор
##ed
ошиба
пиро
открыто
Ого
сквер
выклю
##ителю
девушек
##ченного
думая
45
Коло
##щению
цивилизации
##кнуло
контр
картина
Кеи
глазам
алкого
устроить
детек
прямои
засто
флота
эм
повсюду
вызывает
земель
Сим
изменилось
доставля
Воль
Уч
плет
сплош
Сере
закреп
Реш
наклонился
Вчера
стенах
взлет
##ОН
Увер
##неиших
просить
смогут
камнеи
##дак
##дек
Тимо
Золо
слухи
Мое
##ражает
середи
##драт
богов
##няются
поблаго
транспорт
рыча
прослед
объеди
Возь
гнез
##еда
бесп
уходит
сар
шагнул
направление
См
##емым
волнов
судить
маленькую
поспешил
молодая
аван
проидет
братья
большими
джен
Прошло
собственныи
всякие
штаба
урод
срабо
мм
отоб
##тт
##чее
Константи
самостоятельно
зама
##нные
диван
ЦК
перешел
мужем
понравилось
Очевидно
служа
жир
##шит
сделано
##пала
звонок
Шер
госпожа
директор
помогает
Катя
проводил
инстинк
фигуры
восприя
причинои
Ур
раны
делаешь
##ровои
грустно
отправля
Обо
Хват
апо
уверены
брон
тяго
комната
помещения
цик
надеясь
прит
##спит
такому
поиски
бизне
жертву
высоком
ярости
Союза
##os
навод
указан
##жались
Джона
городов
ребенком
частеи
помогать
непонятно
нра
82
##олет
чувством
##гр
Джим
озабо
единого
Остальные
нала
саду
загляды
##ченными
сумер
пожар
##елью
мерз
минимум
вытер
вил
нето
заметив
##шан
февраля
яго
выкри
включ
##ционныи
проснулся
хорошее
выбора
установить
усы
Пошли
##едем
Хра
хруст
жестом
выполнять
украин
транспор
завис
##ною
Расп
вокз
Сразу
планете
##важно
слом
Тра
перчат
обшир
обнял
##бро
заключается
осмотрел
красные
ходили
вит
Представ
понадобится
отход
цепо
локо
половине
служил
совета
##стать
##тельность
веры
институ
пренебре
##ительными
веков
купил
коридору
Ца
концеп
##ствами
характери
рыб
уголов
##пии
упер
##вшую
пид
Помо
подозри
центра
##мули
##стоять
отдохнуть
##пев
музыка
страж
домом
##няясь
Россию
энергети
излу
##иская
половина
##росов
Роберт
Париж
Таи
перег
поско
губам
##ковая
архитек
приехали
законы
помимо
сет
принести
правы
госу
зарос
мешок
зверь
оран
##атра
площадь
волна
выполнить
прес
улов
жу
необыкнов
блон
приду
Выс
спектак
прочих
Пора
Япо
малеишего
отчаян
##рями
попала
исчезли
учиться
отпу
морскои
теку
##ордина
##ждаться
радов
##няк
положено
заодно
отби
осен
белого
какому
престо
ручку
бояться
##росли
суток
держаться
огн
попали
Рэ
труб
Год
##am
##ализм
наст
необходимость
Ясно
направления
негромко
вски
джентль
мобиль
##точку
Академ
становятся
прервал
странныи
попыта
XX
##нус
##жество
дольше
обоз
собственную
##обла
патру
##КА
проходит
ожида
Дмитрии
тихонько
перебил
##делить
др
Вряд
стула
просты
испытывал
дивизи
##менно
тонн
массив
дверях
испуганно
Жо
##жнее
##скочил
жалко
связано
губерна
сего
Джи
##дных
природ
Маг
плоти
Естест
Боюсь
приятель
добрыи
старалась
окном
носил
рассуж
муску
Жа
предположить
188
грани
наверно
встретились
##ритет
довод
предложения
начиная
сена
предложить
травы
оказа
##лка
##ида
##вина
догадался
величаи
усилии
последним
особои
сомневался
встрево
делами
##дея
давали
накоп
##глу
глухо
вдвоем
##стики
реакции
решать
листь
полотен
изд
Рома
мнения
##сыпа
дос
Свои
золоти
разма
прекрасныи
##шенные
спит
крупных
пошло
обнаружили
изы
присутствии
##хах
решении
убедиться
своеобраз
раиона
Продол
##ing
развле
обстоятельствах
##ческому
играл
##лана
##вода
Бет
##сев
вылет
сильным
стыдно
кричал
болезнь
##стное
ничуть
обеих
провела
отзы
боицов
дышать
сердцем
произведения
##тями
##чете
Зу
неопредел
индеи
охотно
долю
##жете
техники
враждеб
##елям
##ражи
искусство
добавля
##нело
мокры
##шаться
иное
##чье
Пен
растерян
первонач
##рисо
осоз
высокие
Илья
терпеть
выходить
выяснилось
военные
десяток
Неожидан
##ванных
разрешения
цир
уез
демонстра
выпуск
безнаде
страсти
главнои
плес
##хло
привязан
##ропри
Воро
пролет
##нешься
дама
произоидет
##жными
предъ
закона
утом
##тефак
##илин
победы
кана
Никаких
лестницы
Чет
механи
единственное
угрю
черная
Сел
положить
##ующии
продолжает
товар
разбер
##уды
сердито
Вра
астро
##ером
детям
покоя
рассмеялась
обернулась
пакет
пары
##ковскии
##ститься
знакомых
Чуть
Адам
сала
кои
чеи
создание
похорон
начнет
пересе
распредел
Сал
внутреннеи
корпус
процесса
##евал
##nd
неит
наверху
гимна
спрашивал
натк
немцев
Гам
колен
жертвы
Врем
буркнул
спины
бороться
замолчал
Две
эми
приняла
##довать
откро
денеж
##зра
##разум
##дью
обязанности
монар
покинул
милости
##равшись
программы
жан
кад
песок
банки
черта
Отлично
половины
отнес
боится
модели
##бю
пило
##шинство
институт
политическои
высоты
Джеин
одея
Совета
##бед
записи
заор
##тания
Слова
подрост
чь
Рон
клят
идиот
заглянул
показалась
процеду
##лать
выры
высу
маленьких
Сар
пожа
бежал
спя
изнутри
##чину
##берт
Изра
Бан
подруга
##елет
требовалось
##цик
##чется
дружес
жиль
советскои
полного
Лет
происшестви
неподвижно
неизбе
Чарли
евреи
##стного
рисун
спальню
графа
Великии
собрался
страна
##блем
поступил
буржу
##лилась
##геди
наблюдая
Артур
32
##мета
настоящего
##щеися
пространстве
##тылок
страдания
невероятно
мелкие
чести
следить
уверенность
##навес
играет
##вказ
Дим
интелли
ткани
направилась
аромат
обруш
товарищеи
появления
##чны
Трет
топо
момен
Кому
Увидев
мят
слышу
Арка
башни
##дивительно
Богом
##рении
Должно
Мини
Цар
перепол
Мет
поехал
лагеря
нередко
##мути
лучшии
столик
##жеб
энергию
Звез
Кеит
##ующих
пробормотала
скан
делаю
##иси
##гран
целеи
поверил
##лему
Благодар
отошел
поимет
Фре
личность
##щур
нечи
Воло
миль
##ченко
проме
отвез
присло
вздрогнул
попробов
##фет
завал
содержание
истери
##женного
Спустя
количества
нале
рассвет
появится
##ur
достижения
Джули
##мати
##сыи
Лар
##нку
Дет
случая
##вавшии
##жись
##итым
##пали
отправил
выбраться
обезья
куски
##ченную
банк
##бат
чере
паралл
Сви
аму
Афри
дива
реальность
недовольно
жер
##мешь
сог
ночнои
барха
смел
##лески
##парта
несправ
встретить
милая
наполн
##неве
товарищи
Большои
работают
прошед
возвращения
задание
шевел
шам
двести
злове
Валь
праздник
оставалась
настоичиво
неис
нега
протест
выдав
Лит
твоем
Король
бывшего
неужели
##чивыи
##ворим
знании
виски
седь
взаимодеи
настоящая
задачу
дисци
колеса
обло
подбо
Лео
##мотреть
случаев
образования
собак
рассмотреть
Меисон
деиствует
##турои
##оти
##удил
сперва
бегу
пригласил
взялся
эволю
##дик
желает
подробности
окку
стояв
дурак
##еная
Народ
##еров
желании
##рабаты
рестора
Быстро
Пау
показывает
материала
кристал
##РА
помнишь
перемен
пожел
четверо
Крем
маленького
снизу
отцов
бедня
окрест
невысо
прохо
арти
Сме
сиденье
чертов
дели
Тома
Ари
секретар
брез
легкии
##хонь
напомнил
пеи
##дного
открылась
отдых
##бург
шоссе
##ляции
подхватил
сети
##ствуя
темнои
забыли
неловко
брак
полз
кандида
острове
##вара
взяв
##вку
##махнулся
##товых
музык
70
ударом
##рур
потолок
пало
метро
отпуск
##ливым
##линг
замен
##итая
сообщила
мыслями
##туа
появление
накануне
приводит
##был
##жег
упря
##дис
этажа
толпу
##шемся
разбира
заставила
силе
экза
##штеи
##питься
кучу
Яков
Ново
поднялись
бессмер
занят
рос
считая
табу
##ительство
придумать
костра
широкои
Немного
мост
распоряд
расхо
иного
Совершенно
##глот
Яр
##нора
спорить
ряда
##вающая
изде
составе
забрать
дрем
разума
древних
брыз
советских
отды
Сту
заса
ближ
переи
сообщения
гнева
##жества
удержать
сможете
репута
басс
всхли
существую
##довои
Лена
команда
увеличи
источник
Зи
Ивана
защитить
испор
Татья
##статочно
Москва
покое
скалы
небольшую
госпит
рабы
игро
##вили
##чиками
последовал
управление
высоких
титу
##жище
моими
автомат
построи
черными
33
##дное
голубо
руководство
мото
электрон
##дился
ошибки
выступа
терять
34
предложила
совести
означ
Пал
следовательно
##елл
приклю
порабо
тали
устанавли
работала
нево
поблизости
оправды
отдельных
сми
супер
мату
позвал
основнои
пуска
продолжая
Скажите
предчув
Иоан
##евшии
расстрел
угрожа
духом
##тивное
учителя
занять
##дались
Новыи
слаб
##ктором
Голова
путешествие
призем
смотрю
##гиня
мастера
##тся
атом
захочет
##елин
связаны
сеть
прощения
большее
ся
сумму
ово
просвет
Уол
нехоро
стихотвор
психо
расскажу
зеленые
##рите
платья
управлять
##ВД
нашими
новом
берего
попытаться
полная
любые
изобраз
##вят
платить
странах
масла
вечеру
приходил
раскал
называ
##еву
присел
преда
поне
##ливые
##ныне
затруд
нетороп
розы
фактически
сдержан
красивая
Быть
дворца
глянул
своя
гость
##вано
Пес
лодки
экран
Сред
старшего
хотим
живым
потеряла
невозмути
##ac
Парень
Закон
взволнован
последняя
газета
##терина
заверш
Пы
Хор
ряды
уцел
переби
многом
решился
адмирал
мечом
артефак
католи
разг
сыну
187
аргу
лучшие
меропри
скри
##рядо
символи
проры
потерять
##ливая
##ницами
Хватит
душои
оставила
одних
упре
Сталина
поцелуи
Влад
##id
сказан
##циям
реку
Леони
Ред
существуют
королева
##есса
ботин
купе
интен
желал
уехать
сгу
возраст
делая
Уэ
Город
##барди
теорети
Леи
##ляю
компанию
1941
здании
десятка
пламени
Всю
Луи
большом
помещении
маски
спрашиваю
##стам
счастлив
##хнуть
эффект
рассказа
Естественно
Ил
зацеп
крупные
фабри
Любов
спустился
##центри
Дик
сорока
фразу
десант
обращая
##вающим
##станции
десятки
материал
мит
##жена
золота
полета
отправить
волнения
##ИН
Брю
удел
Блеи
##цкого
птиц
крохот
Ден
сэ
здоровья
##мотал
соору
подряд
комит
##жился
трагеди
хруп
поклонился
колеб
видим
##челов
правил
подпол
капель
##дкои
отвернулся
самоубии
подруж
грязи
деревен
тремя
получив
##лого
верхов
##редка
легкои
людях
80
##щенного
выражения
короткии
одеяло
Интер
возникла
преобраз
экране
выдержал
звучит
Бого
Гон
##сили
евреев
Самое
тысячу
##меть
##дись
животное
группе
Ваш
Древ
##леров
слю
поступить
вскры
люд
##вшему
Париже
случиться
делается
побольше
статьи
метод
Спи
##кен
продав
##против
зеленыи
занавес
##бежала
похожа
услышав
тума
Были
##дили
приговор
##зен
достать
выходя
изобра
КП
колеба
##праши
нача
Руки
сталки
образова
общии
пешком
озада
##неишии
##ковую
мут
наполовину
собственное
местные
одежде
строить
##алека
штука
стати
объем
нужда
##нн
##лениями
эффективно
заболе
холодныи
##таны
Первым
красиво
линию
##тивным
существ
##сая
Хм
##тками
тверды
веке
уник
Ть
обеспечить
бр
сотрудников
ножом
##преки
должность
органов
расплы
противник
религии
Дед
беда
усмехнулась
обман
одиночестве
Марии
гон
принадлежа
##хими
квадрат
президента
дон
##вающее
пыш
прилет
##валь
удары
бешен
Соз
означало
Ход
##ито
единственная
отстран
иные
карет
##зал
##иска
возврат
строя
некуда
36
обращаясь
Большинство
бюро
Сек
##шевел
##чна
прои
победу
обсу
Моло
видео
##естра
изда
Владими
##ченное
Сиби
кармане
сня
каф
манев
замке
наедине
крылья
предметы
превратился
человеке
сознании
организма
##пира
обос
подоити
атаки
##зая
посмотрим
##мона
признаться
держит
##рямь
колю
##ующие
##телем
##жко
##расс
##ссия
усер
##тное
православ
Дэн
выбрать
изло
обладает
определенно
носа
Знаете
Никита
судно
воспро
выстро
Руси
величество
торжественно
##мера
сун
Сергее
ужи
хозяика
##кладывать
показала
обязатель
лучшее
поблед
ненадолго
согласи
хитро
разведки
##стика
Цер
несо
иных
крут
владе
подождать
легким
##ОЛ
технологии
пони
борода
проект
##стка
провели
полагаю
бесстра
Лондон
##лее
прил
атаку
перегля
##ничать
огромным
##ившись
##ion
##ствию
##ждается
аристокра
##ерации
##ющем
участок
смотря
глубже
Хочу
прохлад
##сила
##рована
медвед
канц
спинку
Маикл
Далее
##носили
провоз
таины
саха
экспер
яз
туф
ужина
##пустим
##чание
Тоже
сиде
Наташа
увлек
##нче
коне
##ницах
швыр
ухмыльнулся
видов
гостиную
87
старательно
ужасом
##шес
похоро
адвока
наблюдения
прочие
коже
Принц
впрямь
##22
эпиз
Хью
Джордж
ряв
предпринима
небрежно
сахар
Прекра
вплоть
прися
отраж
Ваша
вернусь
кнопку
Дя
способно
выглядеть
##вшимися
##гур
деньгами
Основ
легкие
##ковод
выдохнул
допрос
##чую
##хали
слезами
соч
хрип
##близи
##ственную
##лика
выбира
толком
перели
клин
интеллекту
попросту
холма
Макси
инженер
убор
кулаком
поскорее
запо
неле
интересы
насе
названия
гвардеи
факты
Елена
второе
##ношения
Кого
ящи
некоторым
потянулся
мужчинои
Энд
поднес
святои
##дным
##чими
##фт
##печа
##um
Брат
Первая
позицию
##рованного
публика
милыи
бен
НА
трю
собственным
продел
##щаи
девочку
темных
Джеимс
ошелом
идею
глубины
Дэвид
непре
переговоры
##ывал
Извините
креис
смешно
слои
нагло
начинал
##казалось
##ровании
устои
любопытством
упорно
подчерки
психоло
чашку
##сская
Пять
показания
##ссар
бить
интересует
шкаф
##скали
ожидания
процед
##рившись
углуб
розо
Будет
наидет
пушки
грех
обслужи
принцип
дель
правую
стис
обмен
оттол
поэт
бун
##чника
настоящим
вздо
##ваку
белым
смотрят
экспедиции
служеб
Уиль
Четы
##ждают
револь
развернулся
##нину
оборачи
Бре
идем
предупредил
выпал
Библи
проблему
заинтересован
##тузи
возникло
##ie
телес
объяснять
пищи
выле
обратиться
араб
колено
веру
пересек
истины
Видишь
полк
сильные
должности
члена
длинными
границу
Пит
уве
темы
вынес
известныи
Даль
беседу
лучи
Лука
веки
документ
##нилась
##чники
Вечером
прич
Эрик
носить
каранда
территорию
##зировать
приспособ
литературы
ключи
Короче
Увы
##ждено
представителеи
Тара
плана
очут
37
содержи
Ран
вспых
службе
##родет
##ровался
Нар
##вам
дождя
Нина
братом
человеческих
отдельные
попросить
служит
общения
облегчением
беседы
красным
подда
аккурат
##сне
##удов
Сэ
толпе
печально
княз
автора
Молодои
##стое
избы
повоз
фильм
##вист
пределы
##забет
удобно
аэрод
186
приказа
##шите
военныи
тара
##лала
философии
Профес
ракет
юг
трибу
эпохи
категори
Филипп
Сон
РФ
##лялись
хорошим
представил
Аф
обычныи
пулемет
мальчишка
дно
сестру
Неожиданно
##вард
переклю
##форд
десятков
отпустил
деревню
##мите
Николаевич
густои
Элизабет
поцелу
##евать
##невно
годах
Цел
аппарат
свист
нажал
переры
##уется
##спи
позвонить
##женное
корзи
наск
детал
Лен
ликви
контин
основы
Впервые
##бен
оли
групп
понимали
отправилась
##нило
чистои
пош
##евшие
нисколько
кач
проши
единственнои
способна
##теров
профессора
кури
благослов
входит
орудии
черту
армеи
восток
считала
следующеи
внутренних
носу
##тическое
слух
реж
ходит
сюжет
возвраща
штаны
совершить
некии
поимал
Велико
базы
Кос
пообещал
##щегося
гвоз
сомневаюсь
северо
сотен
Раи
Кло
стоян
общее
изображение
огромная
Уль
объект
хохот
разду
крикнула
предприятия
Гали
##бери
смяг
красоты
38
фамилии
кулак
настоящеи
звери
Кот
##тину
подер
Авгу
переити
тяжелым
странные
ошибку
отго
поставила
##ваитесь
траву
##люби
номера
солид
лаборатории
поставили
ядов
##лялась
рубашку
Мартин
духе
перепу
посоль
консуль
##сажи
следующего
затыл
цара
совершил
риск
выражением
натур
начался
##нных
борьба
ненависть
музыку
изобрет
пира
черным
пустя
тесно
дрожь
##есчур
##вориться
##емонстри
##зию
##зон
считается
вытащ
бомбарди
привели
##аля
улет
ученые
##жев
мок
кругу
##гови
##граф
потеряли
называл
##быми
спала
ремес
вело
впа
Наполе
##дится
##рину
новому
конфер
ауди
убиица
тыс
заве
играли
сдав
Миша
увидит
черном
контроля
гостя
ведут
Бон
принесли
изго
Слыш
##тная
##челове
##царь
рассер
##хватило
депута
##енькие
колхо
##ut
вгляды
жениться
организация
интри
##вавших
##евскии
тропин
##бода
тишине
нен
принялись
следующие
Согласно
холодиль
##РО
стенои
Была
корпора
даннои
получает
сцену
думают
##дело
##ваннои
##гало
несколькими
возна
белом
рассматривать
скажите
##заны
Союз
Костя
кухни
проволо
##зацию
звучал
Мальчик
стуль
оформ
водитель
флан
средство
краснои
отыскать
эс
актер
следовать
корабле
принесла
ученых
##рита
Наша
нереш
футов
мужу
физио
удается
всплы
перекрест
##рял
Валенти
исследовании
обычнои
##ющему
Алла
уселся
поморщился
Егор
прокуро
##ренные
ядер
покос
##нодоро
улыбался
занимается
девушкои
организм
зверя
кинжал
##ответ
хихи
налет
Запа
удостовер
магов
разга
вынул
добра
великои
похит
Другие
уско
Шел
красного
##рики
Генерал
солнцем
принимает
визит
фронт
письме
Повер
граду
обращаться
фигуру
ярость
племени
бывал
горах
оглуш
допустить
телевизо
приехала
##егал
Правильно
глубокии
посме
телефона
##менти
пропаган
##НО
поменя
Роман
офицеры
океан
добродет
жду
неяс
громче
эфи
дошло
припом
Благодарю
тварь
скамеи
коридора
Благодаря
местности
бага
самыми
щеке
проли
прижал
кали
понятие
убит
схватила
пятидесяти
##ig
прошлои
тема
долгое
##росы
##читала
погреб
объяснения
мороз
принца
##шнее
похвал
введ
##даясь
расправ
отметил
извин
Кэт
принимал
обмо
хрипло
##мани
враги
ада
сал
Фар
переспросил
##ову
дамы
листья
Челове
##ладно
офицера
##ad
Спе
целая
гроб
крепость
сформи
##виз
##стен
новость
снего
##ЕТ
##еси
Всегда
каш
показывая
траве
Вполне
скам
Краснои
подтя
Прид
##ас
голода
дворян
##кают
дракон
случалось
вооруж
губу
##щенная
Тим
##носят
акции
Пушки
растерянно
отметить
верхом
уха
документов
##удок
##уждение
внутреннии
благополучно
напряжение
модель
смол
храма
костер
повторила
обманы
сопротивление
бросились
ресторан
ссо
неуверенно
отража
Дем
министра
Дани
хозяева
танки
##шеннои
перестала
получалось
Петербург
мышцы
проворчал
Получ
домо
звука
##вола
вины
##ренныи
##дку
изнач
плоть
энтузи
##ительном
темноты
Одним
дорог
##фан
##овед
суббо
знание
товарища
отраз
личнои
облака
##ежи
##овых
##дира
министр
##жило
остальным
##дарь
сани
сигарету
образование
##порта
зон
Томас
##тались
км
побо
прип
Дети
##гина
кред
Иса
рога
##овые
##стии
служан
##рева
почита
следил
столкнов
фирмы
отчасти
вначале
пива
чересчур
выскочил
саму
тетя
обнима
Внутри
##щенным
##ИИ
грязь
##казу
высоким
нападения
основных
Робер
хлы
прио
ур
##ятие
Император
втя
Юрии
оранже
страшного
познакомиться
велика
бесш
##тье
кошмар
несов
Элли
принцесса
##каться
блондин
Тони
обод
соли
Николая
##тическим
потряса
вдали
юриди
##вик
рацион
барон
##чивым
ожидала
выпла
##тельности
Мыс
дерз
даром
воиско
закричала
Отсюда
мелких
физиономи
##ровались
##ковского
крыши
зару
слове
воспоминании
подбород
доволен
Товари
Первое
изыска
ценно
почер
продемонстри
доброволь
отвлек
000
героя
придвор
потем
чист
сапоги
похожии
Коля
выводу
вмеши
половинои
Тон
занимались
##сфаль
наидется
сры
окончания
Це
незнач
спол
бред
милость
##рился
Мог
мент
возлюб
джи
высшеи
небольшая
##зом
понимание
золотом
заново
белая
перечис
Пои
разворачи
пирами
##комы
шутку
Послушаи
безмол
голосов
Америке
карте
рухнул
##ствовав
ушеи
##ерар
##ow
становился
удивления
позволит
##луа
покачи
тонкие
вздрогнула
##боль
ковар
хорошеи
чужо
Рожд
##фана
фик
успехом
уточнил
##спешно
имеем
захотел
сжа
##нета
составляет
наряд
поступа
грохот
воля
Извини
Замет
XIX
##ронил
лапы
неприятности
участия
наступление
представитель
оттен
брату
пове
видят
Лили
##ЕЛ
соответственно
большинства
напрасно
##шним
Неу
Пост
Твоя
##вавшие
##ent
##менныи
Роза
врача
##низм
##рье
секрета
##новаться
тяжелои
продать
дико
Тэ
поддерживать
высоте
яица
СС
юго
самолетов
##тис
пронес
##водя
##гнули
##иским
спрашивать
полковника
похи
неправильно
политических
Огром
чужие
население
природа
Церкви
##дарить
восхит
раздраженно
##жок
подруги
достато
царство
##вающе
поинтересовалась
разло
жестоко
Сю
опустила
заим
Можешь
Дженни
##стная
целых
городом
##иском
спасения
300
ствол
кустар
фур
##вон
Любо
##ливои
##елия
меньшеи
отклю
Хозяин
##возмож
занятии
выпа
##копа
увидишь
страсть
улицам
Гран
##енту
просит
Право
парнеи
##крикнула
Клю
конь
раздав
огромную
##щина
##жес
Каи
хирур
##графии
бумагу
школа
танцев
##ества
получа
##вью
Прис
влады
санти
молнии
поджи
Прок
щеку
##тером
следов
черную
возможностеи
##вера
железнодоро
вспоминал
аспек
Бру
сели
##новых
##оном
умрет
пристав
роз
турец
отличается
придумал
предупредить
опуска
страхом
провозгла
##дало
становились
Этим
плав
##щенное
сцене
контакт
напоминает
##маты
##ежь
рамках
темныи
партизан
воспользов
помнить
терми
туалет
##пит
подняв
основные
##рие
Таня
Кэтрин
Миссис
безусловно
##рится
##право
испа
##ковь
потребовал
комфор
##сал
слабость
массу
рабов
современнои
заклинание
театра
вправду
##шедшии
расстав
ныр
вывер
неблаго
свы
закрыть
жем
Каким
стака
##гивает
##кса
каблу
лучшего
полиция
подстав
огромного
вертик
##нена
##слова
святого
задума
Соедин
мешает
##рованная
##фикации
получит
##ляются
Сне
очарова
184
Нико
включил
Италии
кано
дядю
Ада
путешествия
насквозь
Тело
##рист
государственнои
врез
занял
##товые
документа
##ственности
битвы
разоз
Алиса
непривы
надле
183
образован
уставилась
##увели
500
ограничи
##ИТ
сраж
необходимые
выпил
Уа
руга
##гру
##оду
Давно
художествен
получать
зау
завтрак
заорал
неве
Ирина
платок
несли
защищать
судорожно
Ярос
слуги
полгода
##екс
ухажи
##хин
##цина
##стает
писателя
шестьдесят
молодым
рассказывала
мусуль
министер
обнаружила
серьезные
глазом
динами
чемодан
Спас
поначалу
##дации
злоб
Оказалось
Эмили
совпад
нужды
##ъем
Кое
неуклю
##ленном
размеров
нервы
##брасы
вопросу
##нительно
Кирилл
Рад
безжало
брас
недовер
##нно
многим
относятся
##нист
##низма
бары
просве
Вадим
доставить
университета
создал
импуль
доспе
##квизи
вплотную
отом
цену
массы
рыбы
Необ
уходя
Соло
добрался
##сени
ушах
Другои
изображ
прису
дитя
сошел
##вшее
шну
лежать
пищу
перио
алта
изредка
издели
направо
Старыи
опустилась
тюрьме
##нута
##мора
наду
сцены
Вов
инду
стратегичес
##ir
Мака
блоки
Последнии
пили
небу
##умал
типи
Настя
Впереди
близких
сез
левую
холода
встречались
##нх
сообраз
сильное
##рога
послать
размахи
мгновении
поддержки
нетерпеливо
внешнеи
коммер
знакомы
энергия
##ельд
сует
потребуется
уи
всякое
##лились
##стала
плеча
Произ
##хоньку
##ствиях
##торами
поколения
непред
##екси
любили
затра
готовить
##стине
подготовки
прегра
##евича
##шер
подкреп
спеша
подъем
##товыи
Вир
##каясь
##пке
##свя
цепи
старались
взмах
пьес
металла
Смерть
##сеи
кувши
гном
восстановить
обнаружить
##сового
перекры
начинать
Фели
перее
достичь
тюрем
успокоить
##иссер
внуш
##коман
замерла
тупо
Елиза
годами
заставило
ищет
Стоит
##рту
птица
исследоват
шага
состава
собран
##ющимися
держала
Кля
обычного
##кора
подгото
Призна
##еными
##тябре
сладо
плече
##ав
достоинства
поре
зимои
предоставля
любишь
Христос
##шины
костеи
лихорадо
Святого
возвращается
виды
ава
океана
рассуд
испугался
##ратил
порог
чья
борьбу
режим
таину
колы
имеешь
уклады
спина
ударов
преувели
легких
##вестно
прояс
Рен
ветром
##чкам
През
значи
##ляясь
творит
поимать
запись
красивыи
подби
прищур
хорошенько
##жечь
парла
щит
наидут
опира
развел
мертвых
сплю
знакомые
прими
##тическая
либер
90
Около
слуг
ночам
Гром
Егип
##тишь
городскои
Улы
185
вымы
увы
##тивная
шпа
##ментами
продолжила
##стером
рассчитывать
##кался
##лышав
##ровано
Эмма
Ами
Бэ
путешествен
штор
##спех
ура
целое
Америки
захватить
узнав
окружающих
судьбе
привело
правде
достала
порядо
стре
герцога
представляла
приш
напар
попут
##чьеи
боясь
менять
стря
##зость
выяв
асфаль
дальнеишем
заставляет
конечном
беспла
услов
##менов
убо
Ребя
##рила
отреаги
научиться
предъяв
##ющееся
Четыре
ложь
четыр
зарабаты
Мель
кладбище
жадно
пиво
поддержку
элемента
надежде
долгие
показаться
оценить
баро
небольшие
отвед
журнала
Зву
поворот
Слово
собрал
ржа
понимают
заявление
сделав
##зам
##нились
дерь
обрадовался
##пкои
орк
воспроиз
романа
погибли
сном
##жают
ходят
Сущест
##иллиан
Позд
поехать
пище
##сам
иденти
снега
##хнулся
##жишь
Ара
подавля
повяз
влияния
верхнеи
наук
Маи
твари
ответственности
Трудно
Россиискои
лодку
##етами
вспоминать
осмел
колоколь
забав
промы
##ждала
конья
лук
коснулся
реф
выну
##рять
событие
##ерах
Андрея
сине
главы
Ветер
директора
танков
продукты
ставить
кулаки
##танные
дракона
пл
39
сказав
обры
конструк
рабочие
терпеливо
отвел
ваннои
причинам
мелод
пятна
музыкан
Хру
Све
серии
держали
реально
##сис
пригото
пояса
оригин
сул
попытка
зрелище
неизбежно
бормо
владел
участников
пест
налево
IV
игнори
Стало
тупи
##кову
##кома
Трои
немножко
прозвучал
##стах
##новым
Степан
Двое
камеры
##дора
разноцвет
возоб
многочисленные
Пара
благоприят
любопытство
Расска
##ственном
столицы
славян
бродя
Великого
экипаж
белыми
указания
важным
железнои
головами
##шенных
##тира
Будем
Спокои
объяснение
патриар
##новича
небы
Семен
стихии
глядел
больнои
ир
##ропол
мужскои
Настоя
поражение
##вует
овла
Лондоне
леги
тихии
##казывается
ошибся
засмеялась
##леты
мусор
лжи
поговорим
Соф
риску
яростно
прелест
область
крыла
ехали
своиства
##шением
вож
координа
поэта
сочи
особых
##РУ
##жна
пробу
пеиза
стояло
столовои
собирать
минов
практике
коммента
компози
##мун
двинулись
##алить
несет
бежали
миров
уидет
группи
сражения
##руб
поздрав
##яза
греш
проходили
Уил
##ерусали
моменты
меча
Малы
стенами
говорилось
продолжить
ткань
Браи
специфи
ненависти
напряжения
помощник
ико
##оля
Леди
вывед
общественно
исходя
длиннои
глоток
##лоб
рыбу
еги
местом
встали
##щил
представители
ассо
фунда
Мастер
##метров
столов
почет
##чике
##ертво
Ды
Дор
великоле
сражаться
наказание
##лох
полы
чужих
Также
облада
Любовь
костюме
##ванг
мертв
##ваемых
журн
темноту
перело
общаться
всевозмож
Глава
заша
Охот
##итами
Мур
##жутся
оставляя
вдохнов
Идем
клы
Кс
записку
река
Кит
властью
причину
##тека
Сами
##зира
дез
##АТ
Возвра
иностранных
Жела
##енькои
мисти
видны
ордена
внешне
Собственно
ерун
четверть
##кнулся
падает
огляделся
большинстве
трубы
телеграм
Хри
Мю
отвечала
серые
чел
напис
находилось
##рассуд
использования
взгляде
поговор
Появ
##нутых
неторопливо
распоряжении
водя
внес
бутылки
##тими
доверять
логичес
прину
##зина
превратилась
главно
оболо
раздумы
История
##планет
помните
попытку
явление
приготовления
переглянулись
##росила
Вселеннои
существовать
пребывания
глуп
Осо
выстрела
обстановке
кожеи
##тикои
Князь
обрет
##нимал
Сом
добрались
привыкли
ученыи
учитывая
милосер
младшии
безразли
Сью
сопровождении
подел
неважно
комен
##спокои
наступа
##читали
издалека
материалы
##писа
миллион
болезн
дурац
улыбается
независи
показали
доказательства
Говори
явления
молот
личного
скрылся
Григории
нога
аппет
драма
Иоси
##тиве
площадке
ня
последователь
##едер
черепа
галсту
горле
настоящие
Эду
мозги
Света
верт
вследствие
улыбке
магазина
поддан
манипу
поехали
вырабо
гору
главных
побери
находи
Наверняка
пещеры
чая
оси
посредством
съез
ежедневно
официально
девяно
кричит
##равиться
выт
##рка
##гиб
команде
расти
ощущал
девчонка
паузу
Девочка
правед
оду
задро
желанием
##дана
надежду
##шкин
позволила
заинтересов
qu
папи
искр
Небо
пуга
изби
отдельно
бытия
##рель
крышу
##мину
##шени
озеро
одинаково
камеру
##данием
##рабан
пропал
гно
закончить
подозрения
выруг
Драко
Кин
##зиться
##чников
согласиться
необъ
реакция
белье
##нным
освет
трон
Лорд
буквы
моментально
##кут
авторитет
оцеп
морщи
помер
миф
давала
свали
приблизился
выпи
лидер
ехал
Тет
Люк
Геи
умею
изгна
болью
сжима
внутреннего
##щуюся
смеха
режи
экзем
потихоньку
леитенанта
троих
смехом
разными
двум
мечтал
##АР
##ковали
скоман
пьян
нит
Глеб
##рядно
смесь
кусочек
производство
рассказывает
мотор
особенного
Гэ
вернемся
дожидаясь
гад
надеждои
Авто
взрыва
##ениям
##разуме
тратить
##езы
обрабо
родственников
плюс
орудия
овлад
дворце
таина
органы
мун
клетки
молитвы
нащу
##льп
Землю
периода
Полагаю
Наталь
##каты
платфор
тунн
социалисти
Взгляд
перехода
сыг
лап
футбол
охваты
заставили
##бия
невозмож
пользо
фрук
начались
донесся
тюрьму
ценности
Холод
тюрьмы
имеете
the
маленьким
игре
боевые
третьеи
гаранти
припа
##зла
##жими
дочерь
началом
Рес
ел
анализ
коем
мечты
важные
кричать
##рим
гид
кусты
стремление
сердцу
супруга
среднего
дря
лоп
нежела
каст
печать
газету
экипажа
дверцу
спорт
Поми
фана
шампан
немецких
серьезным
приба
Джесси
забу
Каро
фре
живого
смущенно
Став
##шалась
захваты
университет
огромных
##мос
рисковать
лома
##еньше
роде
##ушкин
##юль
аж
Сав
дина
нынче
назов
##чинои
подра
вих
Деся
Рука
шесто
Кира
молоко
Гитлер
##12
Помню
использовал
подать
извлек
##терии
отло
следующую
магия
целые
почувствовать
полки
Джин
подсозна
почес
висели
Денис
ответы
секретарь
##вила
раздви
старуха
разглядывая
буи
бетон
##изм
возьмет
столице
##ющуюся
Влады
##учить
выре
получше
##чине
тошно
Сот
ПО
председатель
понимания
выглядели
священник
##st
##етия
ногам
##ктору
проникнуть
тенден
лорда
больнице
высокая
мятеж
прочитал
каме
растет
проходил
расспраши
позор
##ура
##андра
занятие
##тании
размером
слышит
золотых
первыми
Мерт
причес
организов
##фия
подняли
Работа
пани
намерен
вырваться
простым
##шению
экземп
##терна
преступление
пределами
спокоиствие
грам
почи
##ологи
бедра
скеп
гибель
плавно
Каза
##фил
зарпла
##ренных
кардин
заправ
вопреки
беспокоиство
маму
частично
решив
являлся
заняты
##мети
Достаточно
мертве
##даго
насмешливо
Смит
пределах
напряженно
Сказал
обстоятельств
колдов
Паль
пальца
ник
подсказы
велоси
##ественно
##левать
коры
Атлан
##ралось
Придется
убрать
холодным
возразила
офис
##шков
##надцатого
многочисленных
трагичес
страшныи
выходил
Карла
свидания
вину
целях
чудом
неожиданности
глубокои
влез
русским
##пустив
##лии
горячо
брюки
блин
молодости
обучения
хан
нести
##егали
нанести
продоволь
громо
приехать
средневе
королю
Нер
направились
встречаться
Сын
точка
наличие
маслом
открыли
взглянув
##щан
послушно
открытои
Тех
Ребята
золотые
##танныи
лит
пятно
миллиона
ветру
изобража
законов
затылок
Пона
улицах
привлечь
сотвор
угрозы
напряг
крыше
эле
слову
выглядело
сжим
обязаны
рукав
боев
Константин
разъяс
брал
местного
уговари
козы
жарко
густо
##КО
сумо
Пись
периоди
разговаривал
заити
##ГБ
негодя
законодатель
судов
##скивать
пораж
фронте
##зают
собираешься
##вшуюся
цветами
##ваешься
аналоги
Эту
Советского
вечерин
ях
Рол
испытания
происхождения
Мило
батареи
рассы
перестали
связанные
скучно
стиле
больницу
живое
приходили
методи
##бине
Анти
спасение
размышления
##сова
##рины
ол
цены
##идите
##мед
открытым
собственными
Индии
##бирин
вера
Машина
комплекс
Кем
Против
отозвалась
партия
Бабу
Лав
##вобод
ведьма
увидим
##езу
круга
пули
некро
совеща
приема
отступил
##совы
##стали
резид
просматри
##хих
посоветовал
##ничнои
поплы
##тони
расхохот
##ственность
зачаст
осуж
предназнач
##жину
руководством
##гент
поднимая
палубе
небольшое
Большо
ненуж
изменился
Добро
заши
##евского
рабочего
вспомнив
фыркнул
вынуждены
##егом
##тельными
убы
Голу
правды
сень
пароход
Королев
метрах
менед
42
приц
##гун
СП
##руются
Великои
оставлять
разря
диване
расц
замыс
биологичес
мелко
высад
##тябрь
весен
услышали
пункт
славу
##рено
проходя
Иерусали
верит
##тельном
вопросительно
увез
известны
Ков
хода
неправиль
Понял
##мие
привела
новыми
##ора
легла
соседеи
эксперимент
сидят
Гав
возглавля
всюду
вло
##вида
горько
предот
уверенности
устроиство
наказания
удачно
Джонни
обратилась
фальши
##ваемыи
желуд
красивые
Уб
Оказывается
выжить
сокруш
носит
##роса
собралась
осты
муки
Пут
ртом
##рованным
рабочии
Мэг
##дная
рынок
цена
##ia
мерца
возвращался
размест
коммуника
уяз
штат
Управ
##джет
Единственное
направил
тревоги
конц
настроении
##рести
##сель
##рки
рынке
желаю
##рол
швед
неоднок
Кле
правом
Брен
дисципли
##кинув
версии
определенные
напоминал
##алью
##шам
начнут
обоитись
голуб
эпизод
опусто
пас
божествен
Иорк
выпустил
##ням
усталость
мрамор
фразы
##води
пугови
плакать
заговорила
##нову
безобраз
ведо
выбеж
##шняя
горизонт
##ристов
Вя
Чарль
##жительно
##ваемые
колони
Володя
джу
Ала
полоса
##вешь
##чику
приобрета
мамы
##дателем
Вода
бесчис
литературе
преодолеть
покинули
##ани
яд
встретила
сухои
Сэр
мужчине
удивлению
##вокуп
вреда
пограни
начнется
##хова
устала
равновесие
Видно
##онеров
41
старым
гени
триста
нелегко
генети
созер
договора
##em
тяжелых
забыв
художник
улыбки
держался
##ныч
кг
широкии
совесть
переул
существен
##ванная
ню
важнее
остаются
нужным
свин
сущность
##овым
баб
##града
границе
Можете
обменя
##губ
занес
##неишие
чес
##евали
поправил
веснои
рух
рявкнул
##илие
##ванного
Писа
задал
##иды
коров
двадца
##лится
данным
##ec
плечом
методы
##жую
известных
печат
слуга
Понимаешь
##ею
##гат
сообразил
конеи
снисход
##ющаяся
интервью
##шинг
двигались
тщет
страшное
##ентами
глупости
обычных
произоити
продуктов
готово
Вернее
Сле
возьму
##новые
государь
голубые
##ждо
открытия
шеф
проез
листок
Авст
собаку
Империи
крепче
Презид
##АЛ
черное
лучшим
чудеса
прочел
вывести
подобнои
господи
качество
Сед
Васильевич
батю
поте
принципи
учеников
##гули
увлека
доложил
заглянуть
лох
давление
семьеи
коррек
флаг
программу
##тивную
активи
ана
43
##етта
Лорен
##дера
лин
парк
диало
##ментом
##ковое
##числи
изрядно
Счита
залез
помогли
получения
##ственными
городах
##хотом
##шиться
интереса
##шены
компен
изменении
Узна
Будто
1942
Ля
тонкои
деревьями
представляют
напер
Дви
отражение
##шнем
Дам
фамилия
##жны
воскресенье
подозрительно
замечал
##диоз
плечах
серебри
Честно
регулярно
деда
воевать
одиночку
промышленности
лагере
деят
отсе
используя
наив
Видите
молчала
разговоров
##кою
скрывать
подниматься
красивои
обдумы
ножа
##ra
набор
приглуш
предков
несправедливо
Ци
##ньи
сак
вмешатель
операцию
задать
Четвер
воров
имеются
Черно
застыл
##ствующие
Хеи
дат
##бран
свят
постарался
клиентов
пахло
сторонои
работников
Иисуса
спокоиным
Вторая
куд
бесшумно
апосто
судья
##центра
луна
песча
##няло
организован
шляпу
##пить
уголь
Сти
иным
случаю
##ительница
спальне
##щало
девят
поблагодар
искали
##чевать
наиду
прони
выбирать
##зли
подразуме
великих
44
жертв
казаться
повал
песню
гипер
сторона
лечения
ложки
##ваемся
скульп
##илен
бров
монастырь
##жело
тарелку
Началь
##щалось
##немно
полицеискии
неизбеж
выпуска
завы
женился
помнит
полот
Желез
концер
собеседника
нахожу
важных
глубину
воспитан
разде
заста
отвлечь
трудности
губах
традицион
##постав
незакон
##чут
слабыи
дыша
нарочно
героев
##клон
Досто
назначения
телохра
песен
ложе
##илище
обстановку
урок
отрицательно
воздеиствия
немал
Женя
случается
животные
приходят
Бель
Чуд
смеяться
помолчал
ошибка
страницы
##удет
мебель
локоть
##мотр
Граф
Жена
##торое
разбу
ужасе
##почки
добрые
обняла
растения
равнодушно
Думаешь
горел
##пле
отвле
положив
##ьется
получал
отвернулась
машинально
разговоре
зубов
переу
доброго
##новать
##зали
##овался
теплои
категории
создав
горели
рецеп
Ира
следующим
убедился
Последние
ехид
Петров
Бак
допуска
Матери
точности
уку
засло
использовали
Дмитри
##унок
ом
##уна
неров
##думал
сбли
признаки
бала
красных
##рыня
фильма
результатов
##шиися
обычным
задумалась
маршру
оптими
##бежа
выши
Полковник
##вани
вправо
блокно
отделения
Диана
рядов
следоват
мони
Шан
указ
пух
зая
лениво
пламен
##нного
навест
сказо
##нского
##фек
зеленои
писем
выдал
позабо
Попробу
скал
влево
свире
жива
выполнения
Люси
##ящии
комиссии
выстр
##джа
скандал
выразить
побежала
углом
выдать
урав
съем
грима
##im
встречал
##ter
осужд
##вором
##ясни
Бои
Непо
пел
серыи
эльф
плохого
призналась
докла
поездки
боку
##od
одар
клинок
Азии
красными
прошлыи
эксплуа
ворон
стри
##нутым
существовании
Джефф
клиента
бесполезно
подруг
святых
Позже
##жия
Куз
Наступ
своло
гит
Кузь
забудь
Роджер
##евших
##op
эваку
полицию
вознагра
встретили
судна
звонил
##чивость
##шня
##чило
Здравствуите
##день
услуги
животе
просила
ключе
стиль
пополам
шире
светя
вмешался
150
влиянием
Фон
доверие
рыцарь
мыслью
вершине
##висто
утверждает
впечатления
in
божест
осла
великим
попробовал
ладонями
королем
##жик
похожие
##служ
проснулась
четвертыи
возможным
##нскии
целов
Пушкин
глоб
желе
Сера
Святои
собираются
бессозна
одиннадцать
##усь
кошка
фашист
сняла
Первые
универс
Ким
выводы
наго
надеялась
требовал
столицу
Краси
Павла
научился
предметов
выходили
обычные
водки
простых
обстоятельство
приказу
прислу
нации
ковер
базе
понравился
подсу
##таясь
бассеи
указывая
подумав
воспиты
кону
подокон
договорились
##уха
дружно
трудов
отсутствия
закончится
двигался
безупре
намерения
Уни
согласия
изображения
торо
печень
маме
ударила
предпочел
нагруз
взды
налого
существовало
отправили
гиль
Неза
Иисус
впол
привяз
##іи
добычу
##жден
партнер
вдов
миллиар
##стрем
посол
шевель
равнодуш
##топ
##илом
создавать
количестве
дочерью
Осторо
Сила
трепет
##неслись
##нная
горю
считаешь
происходящее
перера
старую
Напротив
##ходимо
##пав
освободить
группои
##ея
Уз
##стрее
императри
провали
##бега
больного
пролета
пир
королевы
Примерно
стрелы
устроил
набрал
географи
контролировать
ростом
##кторов
труднее
правилам
задыха
политика
##ВО
любимои
##ича
голубои
американских
приподнял
Ап
любимыи
фунтов
запод
Какого
могуществен
##реннои
делаете
раздо
##гг
##рены
##нятся
семьдесят
Стрел
простые
вкусу
танце
линия
измени
Ужа
макси
порту
небольшого
##читан
##лович
достовер
Ленина
##мят
выг
нозд
аку
замечательно
зао
обря
понадобилось
##вишь
последнем
##ровке
заш
распоряжение
советского
ио
обеспоко
##далеке
умеют
##лоу
первому
расстег
свечи
##пались
сосу
##черед
любому
##итации
шума
притворя
##жели
покат
уходил
куртку
предпочт
нелепо
понравится
комисса
доклад
главная
ребенку
1943
обеими
сурово
данного
объятиях
присутствующих
любая
сбы
слушала
цепь
закончилось
езд
возз
стуле
англиискии
Пят
Хэ
##ольф
содержимое
подобным
командование
заболевания
уважение
адвокат
##сид
дог
механизм
наступления
черед
вооруженных
участвовать
ходила
облик
милиции
множества
Подожди
##респо
суждено
##мирала
##мога
останови
Точнее
окнами
Татьяна
ткнул
мирно
##олог
##зив
Академии
##ционер
##зн
кризис
уль
Поверь
воево
Сеи
телевизор
Речь
поез
погода
##овер
повторить
завода
устроиства
##щимся
друзьям
справедливости
кольца
##ходите
издатель
пыл
древние
балан
бывших
сфере
Смир
##евои
снегу
признаков
##дец
##рда
небольшим
растении
##дную
хозяиства
падения
показались
##еприим
Вене
##заи
заподоз
##ведь
тонкии
счету
музыки
откинулся
чье
вска
описание
Царь
эпоху
Фак
жале
рассып
##жников
забер
ели
##бир
видимости
Ер
наци
##иское
рефлек
Теле
представляется
ветви
тротуа
любых
вере
забрал
плакала
базу
относиться
наброс
##нутая
наука
грандиоз
сестре
Вика
обжи
Швеи
построить
выступил
Павлов
##ИК
##рион
##омби
сильнои
##лило
древнеи
небеса
орб
обслед
подпры
выш
поступать
входя
##хую
вах
столетия
фиоле
используют
##респонд
билет
иерар
Рик
правления
##ыва
Помнишь
конверт
изму
топор
Яна
высоту
вывел
вступил
##пает
сменя
пасту
##гивал
важныи
сообщили
Украины
камнями
##ГО
трап
оказать
капю
сыновеи
напеча
архе
лежат
регули
свято
инструмент
Спер
невыноси
Ева
Михаилов
база
Тео
бровь
гордость
гарни
сомневаться
Деньги
рыв
##бл
предотвра
пытаются
Длин
сумки
Луна
##лежи
Фред
спали
##хватили
##ъю
особое
вызвали
тамо
называет
аварии
Профессор
засо
степень
##паи
среде
##тично
появляются
порос
шед
##чусь
НК
стуч
прекратить
проника
халат
организовать
человечество
закончилась
свадьбы
Мод
пришед
социальнои
отмен
посыла
разрешение
боятся
ране
потянулась
разговаривали
вирту
собственном
##мян
##тового
горды
пятер
Женщины
соседнеи
напит
##рудно
осенью
посер
спальни
Шарлот
Сергея
нервни
поздоров
похожее
негодо
отпечат
прозви
Треть
Михаилович
48
##ану
живые
земнои
Порт
Греис
##екли
##менте
всматри
несло
вблизи
казар
помогал
собрание
нахмурилась
##oc
падали
печати
беспокоиться
сопри
приключ
шоро
неизменно
клиент
умом
##аны
перевоз
неоднократно
Сергеевич
банка
прикреп
##скаки
полум
Стивен
крышку
Андрее
предварительно
прогло
признал
лучшем
ценои
рассчитывал
##тины
злои
##новна
сада
##хотно
##пс
Хен
помешать
Ани
хлопнул
охо
комбина
##канье
среды
канала
делега
соответствует
объяснила
Бек
хмуро
экс
больных
дружелю
планету
применения
##опас
примитив
повсед
лекции
молока
фамилию
##мому
отказалась
презрительно
Каждо
##рили
##шемуся
соображения
короткие
взб
Встре
покажу
брони
учился
государств
Габри
умныи
трава
диску
огни
интона
колот
180
общих
The
##шались
перевести
обои
##ону
##шами
##полно
Архи
выигры
успеть
следа
особыи
проекта
##внои
Представля
свободное
полномо
автоматически
потра
посты
человеческии
Испании
Марта
заключение
бабушки
Командир
Слуша
колонны
##лое
##слан
солдата
1917
обсудить
стадии
вест
нарисо
прока
Иза
развод
Вест
##мели
Одни
##алами
хреб
исследователь
ощутила
##чатся
толкнул
поглядел
##гров
##роды
##вется
материн
бир
маиора
мышления
##ay
пома
дошли
фантазии
##даем
##яния
раненых
Доми
потянул
девяти
бабо
педаго
достигли
##талась
##ждению
Билли
руль
оппози
##щества
воображение
Герман
Нау
взглядами
Грин
вещах
грудью
огла
засы
элементов
##мам
дадут
Кровь
##ссию
белое
##ромы
трол
##фим
листьев
дивер
контеи
тучи
дошел
Пала
##стояние
##етом
женскии
эльфи
Маги
стрит
револьвер
##скур
обошел
##цева
Духа
убрал
читала
поражения
профессии
разлу
газете
##ховои
ответили
размышлял
боися
государственного
руководства
##елии
следующем
##вишься
упрямо
##лушал
сказки
задер
свободнои
вскинул
программ
палубу
копы
##немногу
просьбу
Японии
сг
диск
встретился
цари
многознач
предположил
Пам
единои
##изу
отказа
месяцы
широкие
учить
##нутую
моменту
Герцо
подушку
скрив
8722
испугалась
простит
Ночью
Некоторое
треуголь
Следовательно
ружье
пишу
##пания
красавица
граб
страннои
Уильям
Вашинг
большего
Федерации
зачастую
усадь
обратить
свернул
заменя
живем
средствами
##виль
присматри
##жается
##емости
асси
надела
созерца
Эндрю
коллед
Помимо
заряд
##неишим
молчать
Твер
автобус
выбер
свету
##телю
структуры
физически
ож
собственности
##анька
облегчение
Лед
прого
мах
определеннои
1944
дернул
##почка
отчаяния
госуда
Наи
требую
##лэр
усталости
притвор
повество
##илинд
стакана
##рож
Довольно
обладал
##лилось
Леон
Сквозь
##амет
горячеи
топли
Понимаю
унес
счета
опустив
охотни
кинулся
помогла
знакомства
бригады
туфли
благодарность
пассажиров
шагах
##дитов
##комыс
задач
морских
Услышав
угрозу
появиться
похлоп
глупость
изучать
парали
##идер
Нек
позвонила
выстрелил
55
хвал
Реб
обсуждать
лету
поднимается
материалов
Армии
Аня
волнение
квартира
неприяз
Всех
двенадцати
##няю
человеческие
беззву
красота
##маг
моста
догадаться
182
исчер
дотя
##тиву
плохои
предположение
вяз
ем
вернул
заключил
Хотелось
Стои
##шенная
висел
интересное
##цара
##вимся
надоело
капу
странная
Кат
статью
Блэ
грозит
зоны
серьезное
дяди
терра
Григорь
академии
намерев
##ныр
врагом
диаг
##томи
шра
соро
гостиницы
безд
охоту
праздни
Леона
спокоинои
пришель
штурм
прежнеи
стыд
временно
юности
ракеты
запрос
Вася
свобода
##резал
конструкции
роди
Дун
##гивать
##емую
знакомым
объекта
вином
осознал
##никова
Мик
заду
занимает
Уда
##уэ
причуд
ракови
прислуш
выругался
рыцар
льда
Хал
##жака
Гло
вампир
Моро
недоверчиво
специалистов
##стки
Гуд
татар
##летом
Черныи
неисто
вещества
##жар
попри
выпрямился
знаки
простого
коробку
общ
сглот
пытаюсь
Цеза
таинои
##енит
задания
Тал
произнести
неохотно
Дина
считаете
грав
##видение
немысли
Ваши
Тен
редак
##рились
вскочила
провинции
вздохом
осведомился
собираясь
любим
анализа
##курс
Надежда
аф
умение
Необходимо
элементы
теория
1945
поделать
сильных
замешатель
доклады
00
Билл
заменить
кипя
поезда
Меч
ах
рану
зеленых
##ливых
##чьих
баба
скажете
относился
возбуж
малыш
лишнии
станешь
пустые
опом
взы
предвод
сыр
раздра
постучал
едет
##рипел
народом
приведет
пилот
согласие
обнов
обычаи
##нас
рюкз
комендан
вопросами
камнем
Михаила
ирони
рези
короткое
качест
площадку
известен
эли
автомобиля
##еис
мурав
создании
живопис
наблюдала
##пам
отделение
сильного
совокуп
сжала
of
начинали
Такого
связанных
окре
серьезныи
поима
швеи
пожертво
сложнее
Постепенно
хранит
сюрприз
тяжелое
женщинами
легкостью
Третии
победить
##рясь
боялись
затих
туго
сестрои
морю
##вит
##овалось
самолеты
эт
Чтоб
государственных
местами
коллеги
Сент
##шках
##яна
круто
##налити
завяз
вызвало
Двадцать
##тенок
узнаю
##зона
третьем
предполагал
белую
каба
##коле
##тари
свободе
Воина
##бет
студентов
прекрасная
##ология
богом
заплатить
цита
Екатери
показывать
закат
любимого
завет
##чественнои
Петербурге
##пут
сара
лего
47
металл
##махал
##нимание
развернул
Нез
миллионы
штра
млн
современных
признание
высшего
боицы
начинаю
##данныи
промель
##юта
нуждается
заклинания
##сана
Маргарет
передачи
привиле
поступок
высокую
светлые
стрела
##ревно
понят
произошла
##як
перешли
затяги
обещание
Соня
осмотреть
подполь
фыркнула
следствие
товаров
отчаяние
врачи
наступила
Выходит
остальными
Евгении
хвостом
наидем
рассла
Часто
фотографию
Дядя
##дателеи
Руд
кося
Заб
Лаи
торжествен
тишину
тянет
назвали
Словом
скореи
пользовался
ветки
кухо
колба
пыла
##ующим
##un
поощ
##филь
##зур
жемчу
пасть
монах
##нон
##яются
подго
придви
##кле
##манов
вспоминая
уклон
драться
тряс
##ночка
зату
##чева
близости
упасть
##вностью
взором
открывать
петь
единственно
живы
привезли
весть
##нутыми
библиот
##ульт
прибыль
пистолета
оглядываясь
оглядела
опе
мозгу
необходимое
Оди
##нявшись
окровав
мамои
прине
пропу
маленькое
Ску
рассматривал
доски
допро
рубашки
магазине
##стере
буты
отвести
отчаянии
всякую
##щев
великое
46
комиссар
снимать
фраза
уехала
##вело
##рованное
фраг
Бла
когти
дано
сделаем
##иск
простить
ожесто
неделе
поду
лишних
случив
75
Генрих
##МИ
бд
##изма
пытаться
Большая
Дэни
воисками
показывал
##скала
справедли
открытие
пова
Дима
добровольно
выло
становилась
принимали
Позвольте
расстояния
охва
власт
ора
гостинице
бросив
недоуменно
##меннои
жестко
##чему
оставшиеся
Иоанн
Потер
насеком
##жками
предпоч
родителям
задачеи
звезда
Мила
упражнения
воротам
##язательно
прикиды
убиицы
очертания
чудовище
укло
содержания
Неиз
надеть
учетом
Смол
##далось
de
крупныи
ускор
подмигнул
Брэ
указывает
зри
Сад
##четов
##ряет
##скивая
цвету
шин
счастлива
слушая
языки
##гона
восстанавли
отмахнулся
сопротивления
понедель
вершины
##детель
разм
подверг
скомандовал
Ров
заверил
взаимоот
тум
местнои
шепот
##мем
роты
Первои
создает
##дины
сунду
дика
связана
выти
добер
мешать
Гитлера
питания
##сар
посмотрели
##чивые
лив
##муля
понравилась
несчастныи
отличался
рассказывали
##еприпа
##вателеи
передер
получи
##вавшись
отста
проре
имущество
исправить
ценность
рукам
прижа
поистине
актри
Александрович
символ
торча
##дость
шумно
проведения
привыкла
союзников
##вла
подругу
Республи
##тех
принадлежал
предлагает
спрятал
театре
портал
Ны
готовности
##ительностью
лодка
##едовать
текста
открывая
##сик
хорошую
пуши
##пова
разобрать
художника
долгих
плевать
поцеловала
##ящих
задавать
выдержи
ледянои
придут
бюджет
поняв
экономики
видать
Име
развяз
##сать
покосился
сынок
Себа
##нено
##новато
послуша
возмутился
испытывать
странного
Цвет
Гаи
свежии
гряду
победа
животного
крыльями
вдвое
природу
##бавок
посетителеи
Добрыи
лабирин
вонз
Сор
кружку
##ландии
мала
отпуска
огромными
терпение
проводили
##глазы
восемьдесят
##кусила
уважения
круги
разошлись
разраз
##лушать
прекраснои
##даром
1918
Тю
жутко
образа
Сева
вытащить
Лер
завя
творится
##жак
издали
уважением
щуп
##телями
меняется
заставляя
заз
десятил
студент
дистан
гитлеров
Мест
сбежать
всплес
пахнет
##летов
овра
инструкции
##нины
##цова
хорош
составить
пута
поидут
прибор
побережье
предпринять
##тр
послание
##ровалась
заброш
Последнее
##гаются
корреспонд
вырвался
сумеет
Сюда
исчезло
XVIII
чувствуешь
Юно
узкои
##мова
##хозя
вспыхи
играла
Надя
##стры
оцепен
галер
вторым
выдохнула
забывать
спешил
дороже
Вел
начальником
##ехав
вагон
ухода
воздеиствие
цифры
раздум
##ации
ущерб
НЕ
возобнов
фан
##ваемои
приблизительно
чистыи
личные
дорогие
пап
ударить
Ель
беды
взрослых
шепнул
пит
рынка
Фил
Мужчины
потеряв
Отве
Готов
Уор
##просила
ослож
восторг
простите
##кун
настроения
богатство
умирать
расту
легкое
продела
инквизи
Горь
##тическую
экскур
членом
личныи
Рю
псев
чаю
запросто
##читывая
прижима
2000
Вижу
переправ
мощныи
недви
сумели
участке
##читав
##РИ
Людов
##товым
абстра
тормо
сканд
Дья
Звер
встречаются
пород
запястье
барь
необходимым
Уго
мощь
промолчал
узел
Кавказ
##стром
роду
##оса
гипно
моль
учение
прочитать
##ap
##глась
щедро
Ночь
недоступ
церемонии
пев
пережить
эпи
Глядя
уедин
Дерев
политике
верныи
теплыи
служба
домик
очередную
ВВ
варианты
смят
##станно
##части
коммунисти
метра
клуба
статус
проповед
##енами
Божии
Одновременно
##видения
курса
трога
института
письм
Сашка
окружении
##родеи
ряду
грамо
часами
##жах
подозревал
предполага
родственники
меша
предлагаю
комнат
хозяином
гостеприим
вопросам
законам
дозво
раздражение
паузы
замечает
##ія
Отца
направлению
наступил
ввод
советские
килограм
полные
отдавать
Прекрасно
##ике
современно
##шенным
инспектор
возможных
костя
криво
вздума
отнести
гипот
Николь
коре
##ненные
##щиком
Лов
русском
ближаишие
сосредоточиться
колонии
монастыря
Мали
##тиками
двигатель
##ливого
сдержать
авиации
Мад
##пл
Богда
профессо
Проблем
орден
содеи
##кас
канцеля
приносит
Екатерина
блажен
медс
побежали
посмотрев
##ковыми
боеприпа
тетра
##одоб
##рованную
пада
политические
эст
##кусил
изменилась
проявления
брака
прикрыл
находит
цилинд
лягу
просу
запы
надежно
приглашение
Сва
забира
классе
прослав
операция
звать
возро
понемногу
ежели
##анныи
подб
Туда
взглядов
##хватился
познания
ожидали
решено
существенно
##щенными
опасаясь
шансы
милорд
дна
вяло
вниманием
прочесть
##вателя
длинным
полицеиских
##ильда
рюм
армиеи
таба
убиистве
отряды
инвести
##поля
среднеи
сбоку
красоту
феном
слабости
упро
декора
разобла
поднимался
схватить
Возле
поперек
окрестно
неволь
функциони
скот
##струк
прокри
синие
##хотя
##декват
зараз
нижнеи
писали
предста
кредит
трупы
спят
устроили
Сил
квартал
девочек
смотрите
Бул
обсуждали
энергиеи
умирает
Взгля
программа
Пушкина
подтол
##смыс
соити
бросили
##жалось
вспо
Оси
##точка
возникли
мужики
толстыи
##лыхал
Которы
Хотите
некоторои
куро
пристро
вздра
женщинам
Кала
##рети
пользы
облако
повторять
умело
Лук
Иск
реальнои
##обра
тихим
препод
партию
Семе
отрезал
охла
Часть
слышишь
##пь
кричали
акцен
Кристина
чин
расходы
застыла
завел
уроки
бежит
ботинки
трижды
ближаишее
закону
лежало
музеи
зеленого
хладно
утверждать
Послушаите
находил
Ау
мальчишки
Владимира
ровным
прибе
вступить
успокоиться
медици
определенных
Свято
##ровало
туч
развитии
будьте
белосне
снегом
диамет
##чести
строки
концентра
пропасть
вероятность
##стало
плоды
мэ
серои
##быть
запечат
Наверно
русски
рукоят
большому
галак
рубеж
клана
шансов
##ткои
##ul
##зды
застря
сомнитель
больницы
трам
Дел
лека
беспоща
материи
##лям
потребность
подклю
потро
очередного
красноре
хозяину
Свобод
свидетелеи
беспре
плоско
опровер
обрыв
увидите
трез
кален
экстра
помнила
молодец
##национ
истину
##чивает
неспособ
клеи
констати
усилием
использование
##завтра
поднимаясь
торговли
##ната
##ушкои
Друз
заказы
благосло
тьма
Рассказы
Поста
максимально
полагал
состо
##чонок
отверстие
острые
##ящие
приходить
подарил
девица
##пили
подол
миним
дод
##ряз
##мочка
камере
робко
выбрался
богатства
человеческое
расположение
##етт
заплат
Ивановна
градусов
лихорадочно
##пря
##физи
Американ
каменнои
потолка
грамот
реклам
эго
Th
отрабо
описать
щекам
узо
щу
столб
стремился
Друго
Гроз
##новыи
обратном
открыв
изначально
дотро
Эри
превратились
##пила
родилась
размера
##щив
мяс
##фикси
##вающую
Георгии
экзо
конкретно
согре
##рань
##калы
утверждал
копье
виднелись
##риеи
проница
##ловно
замкну
##щимися
отвор
Соба
способы
контек
ублю
основу
комсом
жертвои
настаивал
съед
##некдо
обоим
острыи
писателеи
деиствовал
образы
##шедшего
сны
кастрю
покупать
Игна
выставля
Аминь
маску
##глядел
##хождение
смену
музе
##удер
обиды
наблюдатель
массов
Францу
интеллиген
консерва
опытом
Уин
##докс
блюдо
##енна
длинных
##чан
подеи
табурет
аналити
##ношение
Стоило
произвести
тера
непрерывно
переговоров
счастливои
предви
присутствия
##ори
Вслед
прикон
играют
продолжение
##тормоз
известнои
Сист
дикта
##щину
соревно
богаты
##ждь
Клянусь
ведом
удержаться
царе
Товарищ
##ковом
финанси
##алки
потерян
##атри
корни
ангел
стремится
поцело
препара
Удар
шип
сравнительно
переживания
##руем
##искую
##мпи
короткои
смутно
находясь
Гиль
Энн
шутки
неду
игр
##шныи
зрение
схва
ошибок
Помните
##рактер
ищут
славы
деб
Теп
склону
##ждите
склонился
комеди
известного
фля
##iv
потребности
##нуто
свыше
тщ
резкии
##мато
помы
принимая
##дилась
распахнулась
сняли
##ционная
официант
Кораб
Наиб
информациеи
болит
французскии
записы
отвлека
предприятии
жажду
обраща
##удили
духовнои
спрятаться
Пти
##инка
повседнев
вскрикнула
Марко
копии
шлеп
учения
федер
восторга
Офи
личное
писала
бухгал
мыслях
зача
долгии
зеркале
старости
выступления
Пси
яркии
представляю
упи
##знать
Ленинград
читатель
бомбардиров
масси
спотк
матушка
свидетельствует
Элис
ускольз
щель
симп
Фрэнк
сахара
##ська
бизнеса
заняли
поспешила
вещами
прожил
##чием
пленных
конститу
вул
181
хороших
мелочи
прочее
тяжелая
таино
юноши
1940
##зана
следователь
##ька
##калась
китаи
поглажи
предположения
редкость
кок
рады
разлет
запасы
##нимая
##нялось
##ительства
95
Эми
полдень
##глас
сумела
##нены
зоне
##пустит
участвовал
пещеру
##седа
улыбалась
Нена
выгляды
современ
бегле
страстно
источником
интуи
##ринои
вертолет
тревогу
инопланет
поступки
##тано
полон
требуют
##гара
защита
сломан
##зовои
##рку
дедушка
болот
круго
##еньки
ноге
повернувшись
шоу
##колад
маленькими
батальона
##гс
умудр
приходило
закончила
представляли
##щаяся
прыгнул
сложи
упоми
воспал
##носимо
исключено
отпустить
##едешь
##дт
##змом
печаль
##несса
Чита
распахнул
общественного
ресторане
приходила
подарки
вздохнув
##іе
реакцию
##мером
старается
You
##тащили
криком
грун
закончился
бинок
состра
планов
Огонь
говорим
Даите
пожало
казни
шты
произведении
пристани
отклон
середины
##телям
демонов
целого
темными
всячески
яркие
реализации
талию
Мысли
пp
прижалась
Ниж
Васили
Еванг
беспло
Барба
порога
Нового
соу
##жному
полосы
одета
родных
коллег
Ваня
персон
готовыи
##пособ
##эля
жгу
сило
помогут
попало
##рови
фундамент
Тел
коснулась
Возду
Дне
обго
рисунок
поддержать
позвоно
смеется
##стижи
Вернувшись
интересах
##ничество
Демо
простое
##ьян
наблюдали
пружи
онъ
растре
злоу
страшнои
Зло
##енек
##частливо
окли
ву
предлагал
Маиор
аппарата
пустыне
##чьего
нехотя
##женность
придав
##РЕ
Горба
лаз
ящ
занимал
стеб
Мира
раскачи
сцеп
кустов
Коли
политику
Коми
кафед
Пру
некому
звонить
##деров
смертельно
##фин
ставит
##льд
полку
придумы
##ждавшись
обуслов
##ализации
ненавид
виновата
собрания
счел
Путь
источников
##росили
кормить
##ноз
##вь
##тоне
##стину
смеши
вися
Севернои
##стили
англииского
элемент
##бел
изра
Красно
змея
Граж
ощути
подоидет
связаться
##тант
Вален
##идов
жад
собственному
количеством
уходили
нетерпением
зол
зиму
Коз
дождем
удержался
пуля
длинную
##шили
##стеров
##тос
бумаг
счете
притом
неест
##вные
беспе
тысяча
Поначалу
просьбои
##маном
глухои
##дона
пропустить
Широ
фельд
точке
##рогои
перст
КГБ
арома
обвинения
били
тест
##тком
##бежали
приключения
##ag
кофеи
Судь
челюсть
трен
сведении
##дент
облад
черте
установки
произошел
гита
русская
предвку
румя
довести
##вки
быстрыи
Нач
##рази
тонко
проигры
горячии
западнои
сотрудники
личных
Восп
возвращались
разным
эскад
позволили
Жак
аи
Поля
наличии
краем
заботы
тревога
преимущество
##вило
магиеи
##лине
поесть
##норм
Провер
##шевели
идио
интерп
салфет
Приход
Рэи
украшения
##ИЛ
дыхания
##формули
##лите
довелось
преступлении
возвращении
блока
Зал
пету
##кия
библиотеке
Рам
##щенную
сильная
ступени
хозяев
предусмот
влиятель
ед
выскольз
висела
49
эльфов
##нышко
Хотел
краски
реже
скоп
угроза
Обра
квали
зеркала
состояла
Константино
заставив
спуститься
феи
##уждении
линеи
интим
Люб
##рованно
Крис
выдержать
##нс
незнакомец
Мысль
##евом
родину
страшные
рассвете
##лат
##анное
повернула
радик
послышались
Дро
##дова
проверил
Корот
##идете
##гливо
люк
попят
##галь
статье
Ноги
пристра
##шара
упали
беззащит
##ельси
приле
Матвеи
субботу
##тово
52
подобныи
характериз
проблемои
мусульман
##енки
Мам
##ИЕ
парои
рол
обращать
художест
доброе
насти
бомбы
тарелки
короб
родителями
Вначале
брен
покая
лба
злости
немецкие
зашагал
##нскои
##ипер
огрыз
##маз
зев
сестер
прищу
книжку
немецкии
##сью
##релить
сбежал
суде
мешало
предложили
луны
Зво
залу
минер
пересту
Виктория
зомби
секс
##ализи
нелеп
позе
##гард
огонек
лицами
читает
спустились
берут
содержит
Иоанна
##геи
доброи
##менным
служили
обучение
процессы
##алек
##ровок
свидание
владения
Недо
##нное
патруль
совпа
широким
подпись
пластин
восклица
учил
##нито
расписа
выки
поддержал
Груп
отвод
карманы
мелькнула
бегом
компон
блеск
начальство
думаи
присмот
замерз
ванную
Мэгги
дочер
компли
детскои
Медленно
ои
##пывая
хозяиство
демона
Церковь
##чеб
Клер
конфликт
трат
представлении
девяносто
напасть
анекдо
улыбнувшись
мягкои
##тиком
испытывала
Люд
сжимая
##щееся
благодарности
набереж
подходил
##ези
частенько
##рочка
противников
400
знаменитыи
горит
quot
##неишее
словес
таблет
исцел
пшени
рукава
длинои
блага
##иско
##чивои
третья
сказы
Баль
маска
зафикси
звание
вытяги
инвали
грем
стареи
убитых
быстрым
##хина
##даите
ищу
##еням
обеспечения
несчастье
##ительны
определение
Исполь
энтузиа
##риф
оценки
Саи
XVI
ловушку
##бает
##шнои
##четом
перено
##ринг
грохотом
февр
помед
аппетит
отключ
дальнем
##росс
##ньте
Десять
увид
Юго
местность
кончится
ответом
Бран
Саимон
охоты
веревку
изучал
##датели
##рр
осуществить
пик
напрямую
неча
нужныи
высших
открывает
видение
заключения
отныне
паре
лампы
безмят
Маил
сходить
##опа
темная
кричала
охота
велосипед
Небес
выез
1939
объектов
разгром
##ступив
##пур
скаф
Сереб
слепо
Белыи
бережно
Вста
Рима
##поли
банков
взамен
позабот
Живо
этапе
успокоился
Герми
испытал
##ебед
противником
вставил
Ворон
откликнулся
Вор
Самыи
нападение
воздухом
Бир
заведения
##скон
##тельнее
грехов
полезно
сопротивляться
##граде
поидешь
прихода
##пия
док
Божь
охрану
##мерз
призрак
##чившись
физическои
тише
обув
##панныи
##ься
волк
Смотрите
Обла
слабым
допу
разгла
преимущественно
##илуч
внешность
сжи
увижу
XVII
Вил
непроиз
коробо
обстановка
Прокля
обращение
##занные
начнем
мот
Удив
тоск
описан
пятнадцати
принесет
Погоди
зеленым
движется
внутренние
болта
депре
Солда
мигом
пачку
##нецов
островов
##ленному
Отчего
сообщает
священника
небольших
могилу
науке
грехи
извра
каль
морем
Робин
бут
желтые
получали
выдержала
указала
общение
посов
Слы
##НК
Ром
привычно
54
имелись
строительства
лаво
Борисов
некроман
баз
звонка
Безу
Угу
летать
родитель
Чест
познакомился
##зую
хороша
Варя
возникают
зашла
неудобно
должное
##провод
Мая
Убии
##родныи
идеально
средних
шур
громкии
претензии
железа
##диа
болтов
обож
образу
мести
стоимость
народы
доказательство
показывали
прибавил
##лли
##яль
рассматривая
извер
получают
##меры
поэзии
предметом
любезно
синии
Любои
альтерна
вариантов
Рот
девчонки
##ремен
##рованию
полуно
лодке
##тец
##леба
рассеянно
##вка
категорически
добрых
оставшихся
номере
красная
американскои
боишься
распорядился
поделиться
65
возразить
присела
деликат
невозмутимо
лаборато
Хам
ками
опираясь
юге
перет
песня
хлопо
осна
##носила
многими
##ступая
##глая
практики
налил
51
затер
Способ
просили
национальнои
Сооб
оборудование
танк
обычная
шкафа
##шлялся
Образ
Алексея
##ильныи
перчатки
тира
расследование
##метро
Миро
согласились
жалобно
имущества
долгого
Солов
множеством
исчезает
Св
поблески
заиг
машинои
##рине
древес
планета
Еди
перо
гордости
соседи
лечь
приключении
##удеи
поглядывая
отлича
горла
наслажда
уверенностью
встречается
живота
пассажир
выса
пещере
179
##еешь
чешу
охотник
отвечаю
вызвала
Павлович
исключения
Нуж
скользнул
тьмы
ремонт
современного
требовать
Сели
куча
перевя
пользовались
расы
сквоз
маленьком
безопасность
зрителеи
фонарь
План
##жени
##тара
короче
або
##жкои
Плю
бумаге
охрана
Повел
ездить
низкии
##тическом
тьму
строительство
Солнца
Дреи
границ
напомнить
шпион
нету
песка
договари
противоположнои
Оде
переки
веришь
репети
виноград
расстрои
##петь
благогов
преу
солнечныи
хрен
похода
страхов
##хаи
вооду
мягкии
возмо
попыток
дивана
гам
виновато
свободного
псевдо
Ули
французского
телохранит
вообража
знакомство
погладил
суста
Анны
крепкии
##теры
##надцатилет
садов
нужные
Кел
факульт
швырнул
убежать
тумана
сражении
Рита
Старшии
зы
парке
кошма
технику
##стскои
шикар
неприли
Симо
##ровы
буржуаз
набо
кипят
Дорога
будущеи
##штеин
##маны
кук
Дес
собеседник
будди
помогло
бриллиан
элементар
Каждая
Сперва
суммы
причаст
просьбе
монахи
кошки
ручеи
Алекса
проже
опол
##ревна
встря
##развед
навес
Марс
брали
тяжесть
##команду
Дель
перемены
напоминала
Место
##жера
апло
##казали
проступ
обвиня
однозна
Карло
выбрасы
сеан
днях
шара
издал
глубокие
Лы
верила
испод
охранник
облегченно
##колов
убежден
53
ассоциа
объясняет
запахом
силуэт
##жится
нехорошо
мяч
расширя
великие
цветок
старому
добрым
##одви
выбран
рюкзак
нашлось
##лава
помя
чувствовали
96
трофеи
племен
нравился
##ману
##вию
недол
прицел
##получ
щелкнул
широкую
почувствовав
поща
краин
боже
греха
##тельства
виден
приют
меру
нечем
Стара
убьет
подобие
Ори
##жание
собираетесь
Ух
Прекрас
молитву
стабиль
Наталья
##менова
возража
режима
принципы
злобно
76
отомстить
##комп
##валом
парик
ходом
кресто
Жанна
свето
позволяют
Ильич
полагается
доказательств
##АК
жидкость
Харри
ушло
изучения
пересо
мягким
занимаются
скорб
прекрасное
Разре
сотню
Леш
ежего
уво
отвес
повести
##анных
##думать
взят
чеп
хлест
творчества
двинулась
звен
отбрасы
узнают
прислушиваясь
недоб
Элен
заботиться
фикси
вечность
пишут
застал
опроки
кончилось
волн
написала
каму
Виктора
едои
##ренным
##НЫ
маркси
процессов
покорно
кампании
ухуд
Стан
нарушение
##ванное
настоящую
Леитен
оскол
Пя
ухом
шоколад
тревого
##ваемого
стон
изменение
1920
чрезвычаи
удалился
выпив
Даша
убежище
сформули
обычное
продукции
рекоменду
бессмысленно
каприз
желудок
пробур
Министер
вправе
##стную
сударь
Запада
регистра
пропуск
правыи
срока
зв
##куль
##and
лимон
прежние
каменные
небом
Кристо
программе
язв
шутка
поделаешь
56
##веж
выли
связеи
нужное
поколении
снов
Дух
Тыся
Прак
серьезных
обле
##тед
испуга
##скочила
##даль
крестьяне
выбрала
Имя
севере
Гиб
заднеи
##рующие
лучшеи
краскои
оха
родо
отталки
##тивов
Вои
превратить
собер
Заи
хранить
##ристы
достигну
зра
спускаться
эстети
лого
##ссу
здраво
богатых
секретаря
##сено
варвар
техника
равен
Анатоли
Василия
Беи
колосс
подушки
пехот
Вис
жара
##ванным
повторял
##даются
Дин
отъезда
тяжелую
##поста
боком
реа
тревогои
толк
треск
банку
отпря
постараюсь
занялся
взвиз
тьме
подъезда
Джеик
структур
феод
##циоз
##сливо
лишним
накор
требовали
врачеи
немецкои
##лики
степи
показывают
##занныи
содрог
умест
поеду
##рея
драз
социальных
##элл
отличаются
палатки
бандит
штук
спросили
столовую
учреждения
ученик
закруж
мали
Стани
гордостью
плодо
сменить
поди
Аман
лезвие
волнуися
рванул
клянусь
разделить
подтверждение
Западнои
##зеф
древнего
бегать
напомнила
обращения
добился
изре
хор
шкату
разброс
некое
звереи
путешество
исполнит
лицах
исполнитель
Франк
Клав
привер
наидешь
шат
собственность
угрюмо
##релась
Сос
Разговор
чемпи
полюбо
лип
осы
прощание
давным
приобрел
Восточнои
НКВД
приятное
корточки
младшего
##стор
научных
кота
##новался
книгах
началу
##новении
St
Слав
##шело
создали
вытес
стих
вопросе
температура
определенного
полночь
Вить
##ара
##гут
преем
Хе
Норм
любопытства
Петровна
выступает
притяги
вопль
Спар
сложности
папы
состоял
усмешкои
Лок
борта
теряет
сознательно
пригласить
Эс
завтрака
##вием
сбрасы
сложил
Изабель
Хаи
Ката
чемода
Муд
лучшему
советы
смеялся
##вавшего
противостоять
вождь
убеждения
вождя
провока
##лона
военным
Должен
мач
присоединиться
перец
пооб
калит
тревожно
веревки
мотоцик
еда
беспоряд
доли
семеиства
Лэ
выкрикнул
периодически
акт
длинная
веществ
##товать
##фера
разного
домах
##ительнее
##лушав
сумра
дождаться
очков
четверти
##шенного
фактов
каково
Верховного
мучительно
синт
Стас
##тографи
Востоке
##дием
разному
скажут
Толстои
бараба
Афана
##метра
иллюзии
Сод
росли
Следует
пятьсот
деиствовали
повернуть
##сками
оскал
страшная
миссии
мобили
Верх
совершенство
равноду
##лла
элегант
танец
прики
приедет
издания
событиях
##алия
договориться
Анаста
прежнего
доверия
явились
превращается
начинала
##ужто
ездил
дорожке
открытое
непринужд
научно
обещала
Юра
Таких
##ционную
счастливым
нестер
появляться
простая
отлу
##спира
##тиво
формули
разбираться
волнои
назначен
покончить
митропол
подвале
Юля
иго
##родо
джинсы
настрои
представляешь
пропустил
испорт
Великобри
Сак
##нать
старое
темного
капсу
способностеи
нравилась
занималась
##стяза
триум
молиться
перешла
покровитель
Твое
перевела
округе
республики
зажмур
Королева
пожилои
проходила
приготовить
ранга
Позво
Луиза
воспользовался
наслажд
бывшеи
кром
раскрыл
молодежь
тети
проспек
восторге
Стро
приложил
Фан
полуо
рассвета
Крым
хозяики
комбине
темное
сплошь
имелось
теря
Холмс
смеялись
ярким
сладко
мох
моложе
беспри
поедин
скромно
##рио
##сплох
выхватил
барабан
устроился
дрова
##шон
Арс
общую
скру
##циан
Юр
схватился
Брод
##яние
##итую
позволял
##БР
Силы
чтение
Джулия
значительнои
веран
униз
бесц
лететь
казаков
отеля
##11
катер
замолчала
Объяс
наказы
##АМ
оглянулась
куртки
##елои
коле
закля
настороженно
##рующих
##чись
пустоту
##дном
##новскии
долине
##емом
университете
##юрер
стере
нестерпи
запомнил
нити
напоминали
##жники
сворачи
re
площадки
Зина
##ваетесь
поднимались
Мишель
врасплох
рамки
собор
ночного
бодро
высокими
Леонид
##ковала
гулять
обладают
востоке
мальчики
##шусь
вспыхнул
слушали
Китаи
товары
родов
пульси
вскричал
##лете
освобождения
голосу
кабине
мотива
экзамен
останутся
##риц
отклады
небольшом
настоятель
##сики
##неет
##таннои
крышеи
Берлин
Худо
Млад
распоряжения
##чатыи
ловить
неприятностеи
катор
перемест
духу
##немо
долга
открытую
режиме
Маркус
рискован
внешнего
деиствуют
Аз
наилуч
прислал
ошибо
миниат
##фрикан
печи
Степ
прямоуголь
лихорад
##наго
Ничто
Ся
##шенную
известные
боитесь
используется
оборону
Раздался
##сишь
заднем
рассказали
интересного
сохранять
##волосыи
мошен
тузем
фоль
медаль
закрыв
Западе
общие
исполнилось
поедем
процвета
выбрали
принимают
охранников
Чаи
получишь
молодежи
никакие
Национ
прекрасные
ручки
Внизу
всадников
гало
Марго
нарезать
Медвед
статья
лестницу
Светлана
окинул
##релись
##овича
перила
Анну
Ид
Стэн
выходила
навед
Парижа
сыграть
##роло
##сист
сыновья
Англию
джентльмен
испытывает
пустую
желтыи
Яс
стражи
деиствиях
Перво
швы
утк
выку
любимая
явилась
моду
напада
Плохо
прочего
эксперимента
батальон
работаю
улыбаться
##алам
чут
покраснела
очистить
##лке
58
##мик
куку
результатом
темном
сегодняшнии
стенам
представлять
Ото
##чивал
вызывать
##анет
шиф
удивлен
Перест
сферы
вытянул
нела
политического
волеи
помогу
крыло
лезть
делаем
встречался
бледно
конференции
Бю
посуду
##ельнои
общим
##ая
##ерием
различия
деревянные
воню
паспорт
Оля
толпои
##ИЯ
##пари
американцы
доводилось
чертовски
##стю
нравятся
задох
таков
составляли
укориз
модер
полуд
рукоять
послушать
контракт
идеологичес
кабины
Результа
##чивости
##берга
тепла
подош
авантю
##бек
##слом
источника
легкая
магию
окне
разглядел
возражать
городских
захватили
порта
студен
##мак
революция
тормоз
держась
##стина
летит
охотников
##кули
битве
жандар
надви
##тивными
командиров
Мах
##жами
практику
заглянула
дочка
плану
отвеча
##нимать
угле
сорат
носили
великая
прогулки
верблю
глазу
согласна
побережья
багаж
##троем
внед
спецна
Поб
##данные
##ОР
станцию
назем
##роду
фонари
Кана
##ливость
необычаино
насиль
устраивает
духовного
радоваться
порядком
выдум
разглядывал
чистого
Идите
минутку
американского
египет
воинои
позвала
применение
##нувшиися
шестнадцать
являлись
Двор
замерли
Никак
перевед
##енькую
темную
Отли
мосту
перенести
вселен
Ски
кусочки
восемнадцать
прикосновения
разнес
местам
обоб
вывес
застен
немецкого
Марья
##мовои
куби
жертва
обошлось
57
позвольте
Госпожа
инструменты
относились
##склон
заседании
Внут
испытать
плато
четвертого
##ленд
взоб
считаться
Специ
##дились
невыносимо
мудрость
свободен
газетах
Зоя
особым
погас
агентов
Пле
Марка
##ническои
изве
##цет
мете
утру
##катился
##шедших
Будьте
переплет
экземпля
морского
##льнои
##довала
собственная
абсу
Хер
походил
##щица
пузырь
##нея
##лебы
отъез
чужим
разведыва
счастливо
полюб
избу
силен
возвращение
##алистов
##лкои
берегов
последствии
узнаешь
Кис
шелест
волосам
Бара
тележ
1990
копья
извле
петли
Неи
##утро
успокоил
##шена
полотенце
надписью
##фина
твареи
пауза
поимешь
Начина
теме
Валентина
Хелен
левыи
помощника
Постоя
проводит
трагедии
ожидает
##нисти
##лаин
##етерок
##энси
забор
Рем
страниц
мастерскои
##егала
вспыхнула
схо
бессон
встает
тащ
##АЗ
уходят
разряд
гражданскои
ковы
латы
адмирала
отшат
побес
повин
выныр
гет
объяснении
кавалери
обращается
##цип
Наблю
Хорошии
поменьше
Возьми
красотои
дескать
чьеи
##тек
вызывали
недоуме
обидно
##рево
кря
##ьера
готовность
вице
##жити
##неишеи
специалист
улыбнуться
исполнить
растерялся
спрятать
##тизи
князю
##энди
Рид
серых
угады
редкие
импери
Дву
##илем
общи
##шину
фли
рывком
беззвучно
красов
сделаешь
##ванную
сегодняшнего
раская
выходят
джун
умерли
обращал
доля
подза
западных
вытащила
страдании
##дача
сумма
Иорке
##ерба
останусь
обещаю
кузне
держится
арбал
учесть
прези
тумане
коробки
##рующии
звуков
веселыи
##неров
ежеднев
##ильнои
устран
разво
окликнул
желанию
морду
Изаб
решилась
матра
ноль
обязанностеи
исполнение
тонкую
##хозяи
леитенан
##пнула
вовсю
мудрости
искры
похлопал
манер
пур
танцевать
мышь
уехали
поддержа
папку
мае
Главныи
Риме
барах
побывал
сие
лишнего
нетрудно
##овалась
##голоса
непрерыв
безнадежно
шкафу
течет
старших
центральнои
напали
упла
Франци
бутерб
##гивали
##зора
агрессив
рыже
похожим
угрозои
мужика
эхом
проле
Германия
##лас
горлу
капитану
царю
надоб
погре
вель
любым
Греи
клетку
ведущеи
престол
непроница
агента
предки
отказались
игруш
Баи
##словия
ун
пустыни
Джеим
лесом
поиск
бездель
толстя
попытке
Времени
падал
трудо
истина
дока
правди
##стными
промежу
гора
психологии
артиллерии
##жатся
вселеннои
##вуд
восприятия
представился
потоком
выуч
надобно
повезет
подъез
расскажет
вернувшись
##og
удобнее
нормы
Рев
темным
приятеля
красав
послали
храме
плохое
каменныи
Людм
ученики
привычки
прочно
магнит
Геро
помогали
Боги
беру
измо
видения
чародеи
позволяла
шагу
Комит
##твори
##фора
Востока
продолжалось
усво
народе
Уверен
наиболь
лозу
могилы
Юли
боевого
мертвои
Салли
держат
наступает
намек
приезда
наказа
обитателеи
практи
поверила
классов
главные
навестить
струи
Леитенант
адап
Лидия
Лоу
поудоб
you
тянулись
чистая
разбор
приказала
изменил
статуи
посп
имену
громким
шери
удивляться
тата
головок
лечение
Нав
глы
Мэт
проскольз
окружающеи
диалек
взвы
леснои
чаше
деталеи
сделался
ученого
термин
ненавистью
Эш
улица
сходство
Абсолют
##вился
проверки
наклонилась
приобрести
дрожали
пояснила
свободныи
Ощу
мешо
безумно
изобрета
совету
визи
устали
оркест
Постара
едем
##ньем
парнем
чушь
слоем
взрослые
##лятье
недостаток
Гил
спокоинее
согласны
третьих
собо
карта
##олимо
велик
Матве
переку
появлялись
насчиты
##зовом
сомнение
кобу
услуг
рассеян
##шаю
родного
одеяла
Воздух
##азель
ощущала
пожелал
ути
код
тавер
советов
одержи
62
даите
собраться
епископ
узкии
волнует
удачи
утрам
ноч
долины
внешнии
системои
положили
Шев
Тран
##юзе
Начальник
жертво
отошла
супруги
втори
Коб
деиствиями
серо
разрабаты
ввести
развернулась
сохрани
##летела
исте
##спер
##лел
узнаем
##рома
ведро
одетыи
свадеб
подножия
##лят
законом
вент
определения
параш
##чься
решит
Полина
определенныи
вою
осед
входили
единственного
шт
##стила
значило
Ас
аном
##доподоб
##ап
Заха
##контро
перел
специальные
Лондона
христиа
##ждаю
тулови
Инди
Петру
поба
смерт
##минало
такова
последовали
пробежал
валь
злость
##стовои
Гого
Лоша
версия
мгновения
##ружеи
ужасное
гнус
бояз
сорвался
размеры
Клэр
берез
Рано
удовлетворя
живая
обвел
предшествен
преодоле
долгои
свидетелем
Южнои
пересел
юныи
носят
Юноша
проплы
противном
##евшеи
юр
##шнему
Ура
заросли
##рядок
местныи
выполнил
##шила
просыпа
Бабушка
комо
нить
##тельностью
мероприятия
рель
беду
отвращение
Наиболее
худои
##сскую
острым
##тках
деловито
пожалел
поколение
происхождение
Заметив
Несом
последовало
пациента
гарде
командованием
несчастного
неитр
легонько
журналист
горизонте
замечание
Гера
##еет
ножи
вырвалось
досталось
выслуши
##рает
Мих
определя
лон
заработать
прозвучало
трепе
крутои
Никакои
##вающихся
гов
поднос
прежних
собрании
Друзья
##ьева
каждые
Мала
##шнюю
раста
теряя
стыда
правдои
пошевел
резким
помешает
суе
оперед
котел
журнале
нажи
Секрет
##омет
посторонних
красное
путеи
тщетно
продавать
Толстого
рулем
недостои
глубоким
наплевать
подмо
##шенное
Джека
генера
##вица
Здравствуи
шумом
##мышлен
глазки
социально
рубашке
Хель
догадалась
Шек
давало
Осторожно
##танных
богатыи
##ненько
заготов
пласт
отличались
бьет
делаи
##нинг
дернулся
##ваемым
умеешь
нелю
вынести
Далеко
покажется
полеи
относя
Фла
капитаном
##инга
Посмотрим
особня
подни
Минут
акту
добрая
доброжела
отдыхать
воссо
апте
заключалась
пушек
колдун
равных
угля
забрали
руководитель
сражение
вычис
##енькое
невес
закру
объяснял
малыи
##рованными
применять
затылке
##евшись
Вос
волную
истинныи
сомневалась
жалости
глиня
Шам
Неболь
ценностеи
гуля
страда
Каль
семина
контролем
явлении
Книга
выстрелов
лавки
Джеими
##муд
королевства
##изер
пустить
принадлежат
важную
примеча
тяжести
##литься
деревянныи
свалился
Мя
Язы
Грэ
колхоз
фоку
столиком
Кори
видна
крыша
##ционно
Мэр
велела
воспоминание
боеви
разведку
привычке
уставились
отель
Обер
Энни
Герцог
незаме
повис
оставляет
приближался
Гим
##ношении
##илер
Пон
##тонос
Круг
потребовалось
женскои
вздыха
увен
Шесть
проявил
расслабиться
умно
Никакого
##сться
Апо
некотором
лекарства
што
Советскои
Вилли
справедливость
визита
##довали
способов
напоминало
амулет
задви
кашля
##ЛА
Поня
##нитесь
сиро
молчит
Вселен
глубокое
праву
покоиного
идее
французскои
границеи
Энди
англичане
вывез
научнои
##сец
##нга
Шум
##ффа
##рованием
опи
бороду
премьер
стоимости
Пеи
створ
##нимали
полагать
сомнением
спешить
##сяга
опасения
титул
##олю
Генна
изумленно
слушаи
##шню
городок
отпеча
покинула
осколки
утверждение
пятыи
##ряя
спрашивала
##даннои
сниз
разочарование
Молодец
Наоборот
запря
подполковник
максимум
повесил
деиствую
прижала
умолк
##лавли
преис
64
отдала
утрат
мрак
Того
чтения
##ровича
##проми
свежеи
Солне
блюда
зону
приятныи
съесть
Реичел
Вперед
Андер
замечая
Сержант
предполагает
VI
дуб
##шар
заводе
##метр
##ерно
наблюдение
весом
подготовить
крыльцо
союза
соединения
участь
заснул
различными
спры
прищурился
превос
церк
вполголоса
гвардии
руководителеи
долет
библиотеки
мыши
эфир
##стике
##эк
уязви
естественным
Газ
усажи
погрузился
стоявшии
обрести
##меров
Оставалось
насилия
духи
улиц
прошипел
следили
барона
Либо
заснуть
##ell
недовольство
Чарльз
##гическои
общественных
бандитов
этап
Зелен
экономическои
опух
меню
Вст
##решь
мальчиков
##пнул
удовлетворенно
владелец
читали
концерт
целои
определяется
супруг
движу
квадра
спектакль
пели
Смо
##занти
бояр
Маленькии
безразлично
нати
коша
усом
сделают
англичан
##еначаль
обмануть
выстрелы
обращался
оборвал
ящика
Европу
горячим
сценарии
хлопот
##илова
великому
получился
очнулся
##оваться
урон
##шаются
знакомого
адъю
##оцен
1991
Коп
недвижи
направить
открытом
Меди
предмета
немину
##дзе
поцеловать
ресурсов
##нную
использует
чрезмер
свидетельство
провинци
обмени
пошут
проявить
неосторо
ближаишего
очутился
прохла
мечтала
лучами
разрешил
будущих
американскии
эволюции
##жане
долину
курь
невеста
Удивительно
волноваться
пятого
##суа
##алисты
подвел
понедельник
достоинством
выздоров
полноц
пропала
купила
Наз
вклад
заповед
бежала
поехала
произведение
##эна
противопо
скрыться
Сев
народного
размы
Зла
##бус
выно
эконом
наступит
помогают
##ri
замор
разбо
мельком
золотыми
вызывал
##екло
тонким
##вающиеся
развал
согласо
живыми
Получается
противно
избира
ощущая
опытныи
обоид
присоединился
пошевели
##кре
##зала
спасать
извините
следующих
скользнула
##репят
длинно
ошара
совершать
самоувер
##ist
горни
##росив
годом
двою
Несомненно
описания
иу
работо
пин
свар
сливо
намека
тропи
желала
известие
призыв
библиотеку
нарушил
упрям
испытание
легендар
молеку
ликвиди
приемы
соответствующие
башма
удача
Жур
полицеиские
Опера
Спра
Лично
августе
Курт
двору
гостиницу
Америку
избегать
подчиненных
##сказу
спокоиныи
основание
Письмо
газа
королевскои
общежити
Шве
ремень
Валерии
погоду
веря
прихожеи
село
##костью
государя
##слись
Пат
подобрать
мес
##обид
познакомились
##теп
предельно
командиром
висит
##ционным
камне
подготовку
скатер
комитета
##револю
Веи
кашта
Галак
тян
Русь
подразделения
пиджак
пират
ступенькам
##нома
общественнои
ВВС
##бр
кобы
##ционное
безжи
##ливое
тоска
##хала
потоки
Служ
спустилась
расхохотался
Новая
мура
мад
Вильгель
Него
последоват
прести
снаряд
мане
концепции
##алист
годится
##кивал
закурил
Сир
Стоя
искусстве
выросла
Украине
засвет
впи
корень
беспомощно
составляют
гобли
даю
появлялся
ненорм
Солдаты
застрел
чужого
специалисты
культура
Иа
исследование
доити
дверям
поверхно
навяз
отоити
спутников
обещали
клубе
побел
центру
Апол
чистую
предоставить
пали
позволю
испытании
Стару
Хит
зимы
противостоя
спла
числу
##лемен
сижу
##пками
помчался
подтвердила
густые
наряду
Соединенных
параллель
конвои
убила
Говорит
непросто
набок
##ватели
серого
##класс
сложные
посередине
##енскии
посмотрите
бешено
энергично
лечеб
Цель
##вшееся
Любопыт
обза
##бюро
несовер
обожа
искала
стади
##гвар
Лаза
##нутого
плачет
повела
некра
зашевел
Валя
определил
властеи
лужаи
нормальныи
выехал
Мара
выка
бабы
светиль
банке
Паша
браслет
восточнои
##пина
фураж
##итыми
намест
осмыс
Согласен
неулови
изоля
ощущении
атаковать
поднимать
##носится
##алах
историческои
##евшего
монстра
лак
латин
нижнюю
окраине
занимали
старом
болезнеи
Музы
##редь
великолепно
дем
дыру
пса
инстинктивно
Дире
меняет
##гена
летели
грозно
деревяннои
гиган
снарядов
магистр
Проц
социального
деталь
водителя
пламенем
отсутствии
упру
нужную
приятным
Губы
намеренно
поднимает
каменных
##сел
Автор
произносит
горизонта
падение
ударили
диких
Хел
клима
Смот
визу
##шилось
торчали
плачу
Алена
маршрут
безграни
загорел
##ящеи
приписы
Офици
##ротвор
Яко
родом
цивилизован
компет
нови
Нэ
##кало
происходящего
развитию
бока
##рием
Сына
трес
хар
##есла
##пену
исполнения
смета
родные
сумасшедшии
мечи
##иблеи
произвел
легенды
сошла
выглянул
решает
стрелял
изучить
благосклон
ука
спрыгнул
Никого
заслуживает
концы
проходят
среду
##миком
##пец
##деться
##ровалось
длину
высокое
гении
Нак
прожить
определенное
##енями
Кэр
раба
##зиат
Лам
Жер
побыть
протягивая
Стри
благодарен
военную
перебе
Глен
застонал
##огу
##неишая
основательно
входил
взялись
чистым
порядку
Ву
доспехи
родине
##дика
пряча
##гических
фили
спон
готовностью
врагами
фокус
уволь
##быв
часу
##овы
мертвым
заместитель
пальцах
##поз
##говорились
данное
запомнить
Аш
##евая
трупов
Волк
##жанта
##ДА
считалось
тонкими
ярче
закрыты
проло
##опера
поясе
Немец
##ьях
телегра
##рилась
##сточки
Известно
статеи
Учитель
подоидя
почву
безумие
древнии
катастрофы
происходят
чашки
вынуждена
горечью
дополнительные
взялась
открывается
болезненно
##ce
километрах
Ярослав
варианта
##цело
бывали
чаем
##варить
Понимаете
середину
применить
КПСС
Толпа
слушает
врагу
поврежд
Валентин
раздела
природои
беспокоит
древности
тонкая
ящики
Невоз
прибытия
Флорен
удовлетворения
откло
##хивая
самолю
заде
Здо
##гиеи
импро
Послыш
западе
казаки
объявила
##ровкои
возможное
бель
крупнои
##молет
небось
уловил
Эдвард
заболева
женского
достоинство
целе
Замеча
домам
##ВА
шкуру
освободиться
##звонил
##дину
эльфа
мела
пилота
дьяволь
известна
комок
удивительного
погибших
##шаи
решению
матрос
слабые
заключить
Патрик
осознать
травои
поведении
остаток
сбросил
приу
четырнадцать
карьеру
Рут
тез
сигн
адреса
осени
внутр
##нутом
главную
преоб
землях
прикосновение
втроем
внутреннее
всякая
Люби
масс
уснуть
кулаками
служат
моди
##еньких
внешних
днями
Джерри
служи
##ествую
танка
Сибири
Эле
##енцию
захочешь
молния
кокте
полетел
Поп
задолго
##хм
Одес
принятия
нави
временами
салон
умела
целыми
Пьер
испов
племя
оценил
варва
##левы
Раду
мур
Страх
##ительна
Фридри
чуда
скрылась
вкра
прижим
листов
##рьмя
косы
вызывают
отдали
сложив
зажа
округа
наследство
освобожд
возможные
Рок
эгои
попался
открытыи
уходила
мечтать
120
патрио
какъ
щет
##хождения
африкан
растут
##кались
наруж
зелеными
молчания
вождел
кип
устраивать
севернои
чашу
паца
эшело
Арта
Выидя
подво
теплом
воцар
непонима
мужиков
хули
запрещено
коттед
Какую
стреляли
невреди
кокет
американцев
Волосы
Сережа
вероятности
##заться
хана
##оба
##чонка
уезжа
норов
##кза
холодная
окнах
##овыи
космос
подумаи
человеческая
##енция
##рач
репор
вскрикнул
башню
ляз
стрельбы
плу
шот
отбросил
выращи
##бота
верили
Страж
наткнулся
Петь
Фила
ювели
бюрокра
##деев
Стол
##ностями
сук
напал
участка
обыкновенно
окамен
редакции
лекарство
ветерок
сд
раздались
глубь
собора
мелкими
голланд
предох
безобид
подумали
расстаться
Эдди
типов
махнула
территори
##варивал
пригласили
Альф
##леин
старушка
отстра
зажег
Воины
бега
пехоты
прижимая
практика
сигареты
##есообраз
Фра
##ровую
Иису
Твор
парус
навыки
теплые
##зиеи
намерении
парню
легкомыс
построики
последовала
явиться
языков
Гю
сдох
специальных
блестели
нашелся
детскии
##рян
##сого
авторов
получите
газов
бедныи
верст
кише
страхе
Определ
соблюдать
общая
##зывает
источники
сложилось
внутренне
установили
плакал
Лариса
клави
результата
толстые
башне
Француз
англииски
навига
верность
задумал
крыльца
верят
захватил
засту
потолком
красивым
попытались
губернии
атмосферу
отступать
давления
вставать
губернатор
угнет
высы
тракта
##тическими
сроки
Дио
##коен
убьют
теорию
Келли
##ящего
кость
малость
##нувшии
Арно
синь
историеи
кончено
##есу
Пин
рубашка
верности
Существует
продажи
такт
##тивном
##нио
русскими
сверкали
облегчения
вчерашнего
Глупо
Олега
напослед
##илья
##ехов
потерь
истол
возмущенно
известным
слушаю
холл
Вечер
Мальчи
Исс
подража
изучение
гармони
стариков
##боли
РС
исторических
лаком
##мея
Остро
полом
холодные
##гистри
удивило
яму
##совет
Советскии
довед
##енностью
формирования
наблюда
Тиб
многозначительно
##наслед
##рих
оборудования
подка
холм
недостатки
##бби
печали
пропор
кажутся
##ано
землед
подготовке
##кономи
назначение
##лис
шанта
вине
графиня
прошелся
встрепену
научить
отрицать
подвес
Игоря
клетке
председателя
Хло
##товая
сожалением
Ува
##рк
Бах
обрета
пустыми
##ИД
столетии
обиделся
стадо
рыно
трубу
убежи
корпорации
Выход
амби
допуск
станем
мужчинами
двигателя
болен
старшим
чеки
справился
мучени
жереб
зима
напоследок
дюим
Божествен
согласится
сока
Отто
спутника
бросает
Оттуда
##чом
Тед
Феликс
парка
Ксения
##тино
развлека
деньгах
торопясь
подскочил
##фар
##ничества
батюшка
породы
Анатолии
подала
высказал
весны
поблагодарил
боях
смены
пускаи
отеле
четырьмя
инци
свек
вооружение
огур
жениха
рв
протек
администрации
ребра
причинить
Моз
Представьте
низким
наслаждение
исполнять
узкие
процент
уху
ввиду
##уэр
##бежав
малых
балкон
Фаль
заимет
побег
короткими
гладко
спортс
выскочила
рыцареи
центром
Женька
##лером
##слава
пользуясь
демократии
проявляется
саб
полицеиского
счастливы
Франция
Пир
условие
термо
##жам
пользуется
##энь
монеты
заворо
червя
Бори
недоразум
местным
натяги
таине
##чивое
выступать
одеялом
бывшие
##панные
выступал
военачаль
минута
##чук
обратила
инте
близкие
встреч
брит
Истин
канику
благода
контрразвед
плиты
тетка
щели
##грамма
##возз
Елизавета
жалоб
нарисов
шерстя
противнику
высвобод
##чица
династии
##НА
привыкнуть
проверять
рана
эколо
##менные
охраня
бросать
россиискои
Мно
занята
##вель
определяет
девочкои
Гур
клятву
крупного
деревом
почесал
укрепления
риф
##деп
появлении
драконов
дышал
доносились
мягкие
рюкза
##хор
##ab
приняв
запомина
левом
воспринимать
полудня
подписа
сводя
палаты
указатель
Рин
урожаи
родила
грязные
тр
Круп
попе
следуя
уметь
ара
Крю
соседа
необычаи
##нька
прощ
подозрение
воротами
купол
копеи
пользуются
сапог
дало
назвала
пациент
высочество
Пря
проводила
поудобнее
##ликов
осто
среднем
включить
десятилет
##чиваться
подъезд
порцию
1937
вспоминает
178
зелень
манья
беспокоиства
In
Жал
поворота
разрушить
непредсказу
принадлежала
##щенном
опло
поступила
ритм
Джоан
судо
##гнет
позвать
улег
признак
##атр
Маргарита
татуи
севера
укро
разницы
##ченность
громозд
академи
признания
живешь
##сиеи
активности
свадьбу
валу
направляясь
лавку
выглядят
##рдо
умру
смеясь
посвят
взад
сера
вылетел
нарушить
стараюсь
переходит
преступников
уничтожения
вклады
чиновников
Шарлотта
##зму
##пустите
криками
крепкие
возбуждения
эмигран
нагото
плод
командовал
стаи
настоящих
грыз
паспор
##берта
беспорядо
успехи
немногие
взмахнул
##жилась
мино
шагами
##кину
вызывало
гнездо
бокам
##шенными
спешно
интеллигент
шрам
повред
вовле
##шимся
выходило
вырез
версию
навис
двигалась
одобрительно
предусматри
камина
книгами
Предсе
шоки
Учитывая
издеватель
ненавидел
пуд
наидете
кувшин
грузовик
##вающими
Петя
##церемон
Адмирал
мешки
лад
Мишка
Оска
крае
интенси
дурно
прислушался
Рафа
виделись
списке
заказал
Брать
##иску
взмол
забота
ванну
челюсти
уговорить
##вавшеи
плате
Стю
привычка
##греди
Еф
##дди
am
зарубеж
возмутилась
##леннее
Будучи
##шенька
позитив
подходящее
##тельны
багро
командующии
медведь
Тере
щеп
##нетесь
воспитания
сезон
##ницам
танц
обрадовалась
охватило
царства
участники
баре
Алан
##мыслить
марте
готовые
постояннои
##вающиися
обязана
покраснел
запаха
утверд
новостеи
сентябре
##равли
комплекса
смутился
##кове
Эвер
полуночи
##циона
часам
жилище
кисти
Реп
следовал
Мимо
основная
допраши
жизне
незачем
мунди
убитого
Обязательно
Семь
##равы
Немедленно
приближается
##динг
совместно
течению
усе
окончании
сержанта
Глубо
бери
Новгород
спокоен
Пару
тянуть
гн
сменил
публики
выиграть
вечерам
закономер
##гические
ружья
Милли
носила
##хает
довольныи
ула
начальнику
Иосиф
Переп
подопе
фара
Россиеи
##щинои
хвоста
требовала
##гори
масштаб
##емому
перез
заговорить
##видении
63
убью
дымом
##гаясь
объятии
Ква
##вичу
волка
непов
выкуп
оборонитель
Здорово
##визион
выступить
прибре
иллюмина
внешности
серьезнои
замаски
завести
##панию
инструк
##рони
захвата
мертвого
напиток
бест
присутствовать
необходима
выидя
##скаясь
эро
дрожал
держалась
седло
опасным
##ИС
шестер
размышлении
нат
малои
веса
Мона
##шенство
предосторо
Ама
звучало
взмы
вечнои
краях
Внутрен
споры
##скаль
пьет
уставившись
приветливо
включает
преследоват
##щите
трубо
##учу
сравнении
навал
лондон
бинокль
праздника
Разум
охотники
##ht
##чивых
рожда
придать
уголок
звучали
железо
Бориса
особые
целовать
ожер
отвела
земного
выслушать
завали
скреп
демонстративно
Лора
посетить
чистое
местечко
готовиться
##полномо
погибнуть
некоторыми
являлась
желательно
самолете
несчастью
еписко
##ряется
##ant
многократ
наготове
точек
культуре
продукт
синя
младенца
цыган
адекват
унаслед
оки
##ствующим
стоящего
Каждое
отличныи
жалова
проблемами
владельца
бин
кеи
светлость
цене
обломки
целым
тяжелого
кустах
каюту
##янои
изоли
гараж
воскре
истинное
широкая
Непло
Зря
перебила
Трое
жаром
отказать
пустым
##вшем
разрушения
пожил
Выпол
Алеша
полутора
непостижи
##ers
##ффер
оказавшись
уиду
Ужас
переднеи
силам
секре
лестница
колесо
компьютера
Расскажи
появи
холодного
закрылась
полях
##щаите
насу
шерсть
мускули
прекрасным
ворвался
##грации
##танная
59
##льныи
тель
невесты
##роны
##ружес
отделении
основным
прокура
##нических
Рои
достигла
процедил
##овои
##сет
Кас
способа
Господу
постаралась
скафанд
вестибю
открыты
подходили
квартала
ставил
расчи
поселок
Подоидя
судьбои
Давид
сложных
ложку
расследования
мебели
сантиметров
ас
##локи
головнои
Пил
спутник
Пр
дождавшись
быстр
вдаль
замечать
оттенок
##чатые
печь
мышц
продолжается
мальчиком
столике
Посмотрите
пятнами
окрестности
командования
репре
##нине
рефор
Гриша
американские
Лод
Божия
защите
считался
палку
Орд
##ставлять
перестрои
гражданин
вмешиваться
настаивать
Пальцы
##данию
нахму
щеках
сфо
молоком
прита
##береж
украдкои
энерго
спрашивали
##емуазель
Счастли
воспитание
Дорогои
Попыт
разбудил
Президент
двенадца
Христи
распол
уснул
детские
спецслуж
ант
благотвори
течения
Андреевич
книжки
зенит
поиму
Францию
следу
Стоп
Опас
Германию
Корабль
единство
чувствуют
заходил
мировозз
важнои
звездо
##знание
просьба
##скрип
Игра
66
ресторана
будущии
##порту
##ренными
деиствием
##зю
необъясни
свидетельства
##эли
##аа
Джимми
ненавижу
убедительно
раскол
##енького
необходимых
мелочь
увеличить
облаков
тяжелыми
мощи
декла
подбежал
Останов
##ившии
вздер
Море
##зовавшись
##прово
молчании
чужа
##рицы
отстаи
пустил
##ерина
полосу
останавливаясь
сараи
раскрыть
##воить
уютно
лепест
внутренним
членами
вибра
неодоб
точь
выходе
заявления
бормотал
впредь
темнота
##мотала
записал
записа
подхода
экрана
выпили
развес
глас
побыстрее
песке
размно
Стены
симптом
##илища
##цкои
опасаться
судьи
##емыми
Молли
патронов
париж
приемнои
Польши
собравшихся
заман
черда
жалость
Смолен
удовлетворение
биться
компань
##бив
твердои
загла
отошли
ситуациях
схема
##волен
изуча
##риев
одними
пятницу
коляс
хаос
романе
собираться
Юп
позволяли
разгро
кризиса
сердцах
незнакомца
порыв
Восем
Невозможно
караван
прорычал
некая
##ием
знаменитого
потока
Нака
большевиков
##АС
1930
рабочеи
Египет
##пые
ритуал
Горя
прямиком
переко
малыша
Санд
Уилл
добычи
лицем
1938
рекомендации
тонких
креисер
седла
суевер
проголо
выразил
остальном
ближаишии
дальнии
значении
проходить
разыгры
кладов
управлении
##шт
##верху
щупаль
покру
XIV
##нувшего
Авро
шерсти
жажда
Черного
зашли
##тается
консу
сделалось
пехо
этно
доспех
странои
Лос
дерьмо
страдал
лифта
Огля
возвращаясь
легкого
пробурчал
##ваемое
молодую
злодеи
лучшая
Которыи
лбом
##няюсь
85
##носились
штраф
Феодо
стенке
платком
##зациеи
крупными
##ep
бесцеремон
огромном
дивизия
Китая
грязнои
хладнокров
обрабаты
позаботиться
погруж
##нутое
пресс
бесплатно
Касс
прови
Важно
методов
объекты
Ата
характеристики
присы
планах
задумываясь
##стрели
отч
Лил
##тацию
семнадцать
сокровищ
Ов
отш
подобрал
рядах
расслыш
враз
эхо
дикии
зелени
оружеи
читателеи
трогать
Санкт
зазву
прогулку
##пились
страшным
камин
##ro
яицо
##ess
сокровища
поместье
колебании
европеиских
##сону
вопросах
оторвать
##ексу
пункта
инфек
покро
отх
знакомое
Африке
предохра
стараются
существом
выполня
мясом
гарантии
Америка
тренировки
прогно
половин
##органи
искор
##еныи
вентиля
дружбы
южнои
ударами
кошел
##росси
потороп
величествен
дружба
панели
##еречь
привоз
повреждения
усердно
ямы
##ганы
летел
##онер
Элек
Тамара
предотвратить
94
ведения
верхнюю
достоино
##жника
##данных
поведал
##ционеров
стратегии
буквами
национального
валя
идееи
##теза
Скор
торжествую
прокричал
личным
рок
сгла
позволило
сду
копо
дирек
##зирая
железные
нахожусь
женить
прогули
ощущать
роскошь
наслаждения
Браун
рассуждения
убиицу
стою
сложнои
##ворец
красивое
библеи
серебра
наслаждением
готовился
копыт
защитои
Отправ
отступила
намеревался
##гического
изнемо
##ренная
Севасто
крупным
вспышка
прямым
Бесс
Софья
объявили
цветом
установил
выдавил
правильныи
Шли
стоики
санд
посматри
##мм
молодому
Томми
Тяжело
студенты
любопытно
перспективы
вымол
выражению
рыцаря
чеш
##пают
##стия
Саль
сумерки
##неннои
промолвил
последующие
невели
одеждои
##девшись
папу
Мгнов
Непри
боец
жидкости
богатые
Малыш
убииц
расшиф
исчезнуть
дров
новеи
книгои
сэра
обморок
заключенных
##тости
##дному
закрытыми
ствола
##ьтесь
извини
##едут
девочке
интенсив
вопли
господину
##ниям
Воск
квартир
##сина
апельси
Аллах
устоя
Юль
озер
юбку
советскии
описал
первобы
объектом
свеже
Ангел
ночных
принцессы
страницу
приборы
задержался
слома
##хла
падать
теплым
##мура
стоике
дьявол
опор
выпустить
патоло
Доброе
связать
поиска
медведя
воображения
почтительно
терпи
раздумывая
открылся
читателя
охранять
сотрудник
всемир
Катерина
Абу
дикие
страдает
кивает
прокурор
осек
броситься
ресурсы
волнами
затвор
Алло
Иу
буржуа
##ромет
обедом
капитала
стоящии
обвинение
Калифор
пасти
##ОМ
башен
наследника
##бины
безот
детство
сказанное
##неишего
совещание
Герои
плату
главу
лучах
очках
россииских
брезгливо
выступили
рядами
опасныи
покля
эльфы
жених
замечательныи
##точнои
##мп
мимолет
##чностью
угрожает
исказ
озву
дальнеиших
полученные
коротким
продолжают
голосо
##были
диза
сигнала
возбуждение
полетели
образе
Гек
необходим
римля
широкими
трактир
##мотрелся
Привы
##ествие
було
##дист
гусени
существовали
завопил
##тинои
советник
##кера
##овую
##неся
городка
партнера
Пас
угрожающе
шапку
осад
##гура
израиль
дошла
явным
росла
однок
кинул
вашими
точностью
Порои
деревня
No
Новои
прику
курил
хорошем
происшествия
непроизвольно
##веши
позиция
поселка
трупа
утверждают
жаловаться
обиженно
Пров
##нева
##жине
любите
развлечения
бру
Допустим
окружили
секреты
французских
фильме
##гическии
движениями
прохода
предложении
нырнул
чувствах
##кается
##мотрим
руд
извили
теплое
букет
Черчил
подготовка
тяжестью
Русские
опасался
задыхаясь
удерживать
тоску
преимущества
##глазыи
ногти
винтовку
##тность
шк
появлением
Ричарда
Луны
Кирил
обязанность
санитар
Код
юмора
али
воодушев
Конец
##тывать
услож
приступить
стремясь
малого
ближаиших
увес
##инь
монотон
руководителя
архиеп
блуз
##димся
Тек
##лыб
Сюзан
входят
##мотрев
Варша
перга
заканчивается
столкнулся
Развед
зажигал
Креп
##щиками
сознанием
факта
##сировать
игрушки
справо
цити
участки
##опар
взвод
норма
тумбо
##одобие
Сала
французов
расстраи
способами
Оливия
монастыре
третью
взмет
залить
##стику
##тельна
Иг
Филиппа
перехватило
затоп
Джем
крот
юб
отплы
никакая
публику
лечить
терпели
поправила
сигналы
##евод
1919
раионах
повыше
##тало
дохода
Эдуард
Серега
##бс
Натали
##пустят
рекои
утер
декабре
##лады
сволочь
заро
обнять
сообщении
представила
Аркадии
заступ
немногих
стоику
беседа
пону
поще
запахи
шпиона
истинно
структуру
жалу
фру
панци
##бко
тобою
споты
вставая
отку
настоящем
отворачи
позволяя
прах
кримин
неимов
физического
орган
##ризма
##ation
ошибаюсь
Подождите
болота
обладать
##мерть
гостям
январе
рухнула
##елина
##ere
требова
Лют
встречать
приезжал
вручил
разбудить
къ
шагнула
близок
уселась
##шедшие
##ваемая
##тьев
##дено
страдать
крючок
сравнить
##новив
нищ
попадает
перегород
ная
##нувшеи
новорожд
бежен
организацию
##аном
указать
серьезного
женат
переходя
департа
вмест
прилично
любимым
##чьим
Выб
князеи
##едал
Наше
главнокоманду
княги
##юре
поеж
зеленая
кочев
активность
обувь
##монд
позвоню
нарушения
Дракон
заслужил
возникнуть
Диа
Осталось
схватили
ужином
Родители
Ребенок
англииских
##емость
яиц
дожди
Шот
Весьма
злые
ночев
to
##зывая
##зывать
Жор
##ватыи
добром
Успокои
##гую
отдер
##стана
вспышки
прежнее
закончили
слабое
изв
стихов
назначил
Тво
прошлым
вспыхнули
Мекси
Окон
##ноним
критики
взорвался
отдам
Неужто
приступа
заседания
понятии
присутствует
##тащила
маневр
октябре
решением
див
нормальнои
Пери
ближаишеи
эи
Ивановича
Волшеб
спастись
стимули
руководству
##куля
игри
склонил
гневно
пробовал
зовет
ища
буря
юбки
Реин
##глубь
плит
намере
истиннои
Лау
##тировал
нотки
формально
послышалось
касалось
соседних
Зиг
высот
стем
стремились
капюшо
Соци
Андрю
восторгом
правителя
задержать
продал
Остров
арсен
аббат
набережнои
##ЕМ
известность
попросили
ограничения
поработать
полем
левого
появятся
Марти
сияние
газо
битва
##хол
эпидем
локтя
Бала
рыжии
обмена
располагались
побол
числом
Вып
необыкновенно
паст
##носцев
##ъест
столби
Исслед
дереву
врать
намет
начисто
пелен
побывать
металлическии
детских
Санта
сморщ
препятствия
винтовки
Роберта
тыл
Саму
драгоцен
попробуи
##рою
торопиться
остановила
науш
садится
бле
выгодно
сунула
разумно
остановки
укрыться
##хен
способствует
Люба
##гора
искуп
##ненных
покажет
Китае
транспорта
вцепился
психот
красивых
##жаите
звал
Ныне
расскажи
капиту
Близ
Побед
англииском
вита
Позади
плодов
дьяво
седои
непреод
креисера
наподобие
картофель
расхажи
опубликован
прятаться
узор
Юрь
прорабо
нек
стрелки
проявлять
предве
терпения
##чивается
автомата
схватки
Поиду
пятеро
идите
чувствами
Предполо
##еные
морда
адвоката
задницу
##чикам
погибла
дыры
##женности
производить
зарегистри
онем
ест
доносился
Величество
Джор
Сум
организме
##шная
поляр
почве
вглубь
обыд
литов
дубов
воздуху
концом
учитывать
сорвал
дается
##еды
##тесь
беспокоися
звания
##искому
прикаса
поведением
легли
Хро
##коном
находят
открытыми
волосах
галере
ЦРУ
##неть
нараста
Петербурга
весну
говорило
адресу
Библии
Стал
взяться
леи
неделя
Друг
##пых
Морган
чуже
##евшим
тяжелее
процедуры
Наполеон
Немцы
мощности
переводе
следствия
Учен
уду
оск
##лока
Пеп
##фои
Одного
размахивая
увя
выслушал
свободных
изле
функцион
морские
юношу
##евым
пчел
последовать
австри
уважаемыи
##шева
продолжения
безуспешно
Сидя
брюнет
##ящим
злоупотреб
подвиг
располагался
здоровыи
Гости
вта
конгре
Ненави
сдать
высотои
счастливыи
приемлем
атмосфера
ушами
выполнение
пригля
мощные
сооте
тринадцать
Бод
звя
скрывается
упаков
июне
ветера
попрошу
карточку
Швеица
круглые
отдав
забрался
глубокого
юга
безрассуд
##скохозяи
Повто
сию
толстои
##едов
##умала
анар
##меном
##звез
##щемся
##итеи
мешал
переспросила
вдобавок
соотечествен
Пусто
Восток
предостер
представлялось
успеет
Нови
бегство
югу
раннего
обстановки
принадлежности
англиискои
лицам
##совые
рассуждать
вглядываясь
##пиль
помахал
обруши
Однои
Перес
обознач
холле
прямого
помет
тоскои
положением
кивнув
Проблема
одиночество
##тонов
обиду
жуж
существовала
ноздри
##има
Наид
бород
тупик
##стьем
##хон
богам
##нические
нерешительно
холодную
литература
пепель
61
прев
Кэти
сбежала
держались
Лест
честное
заняла
Граждан
догадывался
стенки
Днем
орудие
##тоном
бодр
правого
аст
близость
князем
трансформа
##руга
##дович
Гермиона
дири
редактор
автомобилеи
сделаны
250
гумани
палату
выделить
странных
входить
решетку
##лют
##меся
##летряс
запут
зерна
##деятель
Руковод
зависимо
соприкос
оставлю
требование
разговору
безжалостно
Австрали
Вновь
Бег
водку
приступил
путешествии
прибег
восстания
##ероятно
когтями
допустим
отличалась
сравнение
уперся
вооруженные
курить
##ули
запустил
соску
раскла
##варивать
холмов
многого
молние
Соглас
проигнори
эскадр
интерпрета
покла
##дутся
смотришь
##тиру
напрягся
страхо
швеицар
лишить
##полити
ученика
придумали
труды
крыльце
подходящии
дядь
Серебря
свести
##жья
##роднои
скрывал
двухсот
идешь
окружения
победе
упало
физических
##ладель
удру
третье
Марты
объявить
различить
способныи
убивают
геомет
специализи
ввел
государством
осмели
##графа
вагона
ган
беспокоитесь
##дение
Существо
##дными
пополз
наемников
вью
острыми
передали
смертонос
приподнялся
##толь
##стном
миниатюр
##ченном
мужского
вцепилась
##рову
французы
##стет
приблизиться
Встрет
рукопись
памятник
желать
знакомои
Гора
логика
формои
бронзов
братец
готовясь
свадьбе
некраси
кроко
начальства
сбросить
благово
Сестра
помогала
владеет
масля
необходимы
застег
Витя
обратились
смеи
ВС
тронул
and
свежие
пахну
принимала
немед
крича
крыльев
поет
Шон
апреле
приспо
торпед
мелкии
провода
Полит
дикои
предусмотри
объясняется
корзин
награду
поспать
Бук
царем
Ню
##доры
факторов
отверстия
отступить
стреля
институте
##рушки
преподоб
Пришел
Скажем
ута
расцвет
Алексеевич
освобождение
мудре
парочка
студии
ошеи
останавливается
дань
подался
современные
поража
##езопас
парамет
заставит
##чивали
##жащих
долгим
##нином
Макса
карт
##зик
##чатки
##тными
лужи
Бобби
##ывали
Леха
одиночества
ножки
восприятие
##илев
лавке
пещер
Димка
пепел
типо
однообраз
предупреждал
независимость
перепуган
Никому
мему
захлест
образец
##точныи
Рак
##пору
режиссер
сообразить
обрам
истинного
хрена
Виталии
Иде
воротник
исторического
заплакала
компенса
валют
безлю
долгож
оставит
укрытия
отпры
взаимодеиствия
разрыв
столы
массо
позы
Единственныи
преусп
деятельностью
##альда
потолку
становиться
##дям
Вель
неожиданным
прыж
хором
покидать
подхватила
игрои
училище
Дов
муль
Аристо
жилье
знакомая
Дав
мужество
Недавно
поимали
умуд
домини
научил
##ствующии
окажутся
любитель
красную
##гивала
##жон
языках
миры
галстук
близким
овладеть
Столько
заставлял
##тость
мст
ага
родным
северу
тропинке
поискать
библиотека
правая
Семено
кружев
картон
##тился
протер
подобная
тесто
бледныи
ухит
круглыи
Луис
##вающеися
тона
воздви
обстрел
скрывая
Бит
пение
похолод
отрас
карандаш
##меча
трубке
##дара
Глаз
побледнел
##хта
успокоилась
Императора
##фра
гастро
##стреб
Серьез
похва
походкои
осень
высказать
краинем
съел
понимаем
средством
прелесть
Федорович
кончик
тылу
желающих
фиг
правосу
сложныи
72
явственно
Опыт
топлива
##монов
военное
сумато
папои
танцу
сумерках
клеток
беседе
Николаев
авторы
находили
красот
Оз
##одаль
Ваи
пробежала
Охран
различи
взаимоотношения
дрогнул
палате
опуск
фактом
замечания
отставку
лан
тысячел
600
деревянных
щего
картинки
##рующеи
Темно
обсужд
присутствовал
Золотои
##вавшиися
##чар
специальныи
##тывая
##ровых
охранника
поуч
##ровым
Второе
Мела
вычер
пустота
тащить
Видя
лют
Ману
Жив
песком
свежим
парочку
своев
##естов
глаго
коротких
ответов
проявление
государстве
возникновения
поступили
##реться
Будешь
отложил
Запом
секса
##илак
поддержке
Спраши
зве
Маия
##фир
мастеров
посмотрю
домашних
абори
затре
опазды
некоего
бородои
сдер
бывать
мороже
трем
абстракт
стоп
страхи
оборачиваясь
трудя
сохранились
доставили
изумлением
Мару
хлебом
снес
отмах
дочереи
Усп
неспешно
похожего
историк
атри
##мус
плаща
умоля
##чивого
опаснои
подчиняться
просту
Стефа
##ален
похожеи
кошель
советую
Чувство
шкуры
удаля
##росла
Пода
Жар
##ворив
Берлине
заботливо
манере
полковод
бос
преступника
учителеи
Получив
Оши
вспоминаю
лесах
##пути
связя
заблуждение
сопровождать
сква
Финлян
ступеням
продолжалась
Средизем
состяза
внешним
##нимала
выпад
холодное
Винс
обернувшись
матросов
командои
##дес
княжес
жрец
##каны
Универ
компаниеи
сосредоточенно
десятилетия
скале
Федя
ограб
##лицы
скривился
ужасныи
##ласс
##изо
залива
шестои
Хорошая
сталь
##вляет
характером
##изен
температуры
проклятия
подобную
сдался
конфликта
неглу
важная
Русскии
сочинении
касс
убивает
небольшими
отрываясь
дружбу
ознаком
##евшую
равновесия
##цит
нагнулся
Артура
капиталисти
дальнеишего
##сьте
блокнот
абор
корзину
##нат
ладоши
##евала
признает
шорох
##номет
пьяныи
посадили
Египта
выплес
Полицеи
##ребез
##ула
военная
торопился
Эин
поверь
разуме
Нэнси
Высокии
разог
ключом
убер
врачу
подвала
рукописи
муш
сверхъест
##ОС
##стрель
насекомых
тянется
Комму
извинения
Садись
принципу
столкновения
услугу
захотела
##дях
##анным
подруге
##нером
купи
Следом
билеты
аплодис
самоот
итог
вытаски
долгу
робот
демоны
Энтони
платят
##енте
вычисли
##ничал
непол
прям
##ea
##рико
станете
Раль
спешили
зор
отрывая
дневник
супружес
Пошел
листа
Булга
постоянного
доктору
блестящие
вернутся
принадлежали
поляне
рассказов
##груп
пики
##жур
милях
безв
программи
задуматься
Мэл
вдалеке
компроми
прохрипел
старики
##еньким
расположен
мирового
участием
искусно
лишился
досу
апарта
дьявола
замужем
##анного
##янныи
репутацию
лапами
открыт
слыша
селе
задуман
ночевать
торжество
##тону
каков
досадои
досад
Третья
сиденья
способностью
эр
выступление
Искус
шок
дубин
вытара
кони
палатку
Змеи
ожо
Последняя
##волосая
фонаря
опья
неприятное
Всп
отложить
выпры
сооружения
называемые
набира
Стелла
устремился
ток
производит
##граммы
##енс
важности
ехидно
Вади
Клу
коф
##езе
бутыло
граждане
Мег
доске
аэродром
промежут
Нечего
Особо
находимся
обыча
жалеть
пат
пропали
мелькнуло
зеркалом
уничтожение
погладила
проследить
##алин
цивилизация
ином
понимании
обратили
стволы
припар
кружки
кинулась
наслаждаться
натянул
Позднее
##тавли
##ванными
##ерадо
широких
попадет
##яма
зерно
коря
предупреждения
Пота
паруса
диковин
лоды
Брон
клыки
телепа
мужчинам
доидет
##арда
тропе
поддерживал
##пывать
##сями
трети
утверждения
##тизма
патрон
одиноко
открыта
грязью
расположились
встретимся
изменится
купец
67
размышляя
Эван
##равни
добродуш
отказывался
халате
отменя
сельскохозяи
лепеш
серебро
шофер
##est
Вероника
захлопнул
##вавшая
почу
родная
христианства
едят
несут
возьмем
упрек
перевал
лучеи
дружин
обога
тридца
горячего
фотография
посоветов
знаков
мешка
научились
малолет
государственныи
привлекать
странную
приветствия
иудеи
##порить
нефтя
##чьем
перспектива
командующего
Цы
##пели
отдавал
чаиник
ведущии
подтвердить
неприятныи
соскольз
интересныи
повисла
Бери
Ален
##ать
Криш
сана
сги
1914
ягоди
натвор
существовал
бездон
государственные
177
частях
русскую
подсказ
лабораторию
наидя
превзо
Израиль
мешали
ставили
аудитории
Черные
##кивает
мощным
упу
озор
##родного
созданию
Ом
широкое
публикации
хмыкнула
##ряли
поддел
плену
феврале
##бон
посидеть
переговари
глубокую
тускло
вершину
народных
Фреи
##почку
оказываются
Взяв
Марку
бунк
неуют
Квин
верным
таиком
несчастных
##ЕС
караб
случи
##ганов
седле
задеи
##роу
блеском
каюте
##шится
Говорил
входнои
ерунда
замира
промо
##почках
ангела
мистеру
ветвя
разрешить
81
Оружи
умели
жаре
плохие
Идет
втяги
нервнои
ланд
ощутить
детектив
##tt
уверенным
героем
изогну
дег
повли
смириться
гляди
бандиты
сбе
##губо
##торам
называемыи
яростью
выросли
доложить
##дером
сдержанно
поднималась
волки
болото
слепои
бь
проидя
взъ
стальнои
разведка
снисходительно
##сья
бегут
бам
шепнула
Лето
любимую
силуэ
Зака
восстановления
радовался
XII
ручья
Комната
переми
дрож
Харь
летнии
послала
Трен
поступает
феномен
представителя
надежд
космоса
свободны
##оцени
зашеп
##ступы
поимут
созданы
гос
подругои
страстью
Большого
сильными
Орлов
Лари
заинтересовался
Иерусалим
врожд
##ровые
подробностеи
голубыми
##ЛО
Англия
##шах
Ив
сокров
метео
перенос
усовер
офисе
долгом
убежал
талии
Лера
экономического
Дмитрия
кабину
предпочитал
##ИМ
преобла
СПб
##ждест
внести
нечест
глотку
подор
болтать
сери
##рота
сократ
останки
луж
алле
Гоголь
хорошему
дымя
физики
сра
пылью
делиться
серым
страшную
Идея
схватив
топот
колонна
смеялась
##цио
Шуль
приходя
Тишина
шефа
хам
68
Яну
городского
среднии
Африки
всецело
столика
мотив
мертвые
##зоили
Красная
##руса
##тивность
желтои
Росс
ярких
извлечь
отсутствует
ящике
Пик
недоумение
чудовища
быстренько
переворачи
внутреннюю
человеческую
овощи
камени
мальчишку
кроватью
интересные
выплы
приглашения
сделки
ноябре
стража
зеленова
Умер
июле
##рывно
##ническии
пропуска
похожая
палом
весна
Великая
подсказал
группами
##ine
посадить
пожаловать
преступник
пропита
##зарт
проем
усып
грибы
##язы
Напра
структура
отмы
предложением
развивать
пистолетом
передвижения
человеческим
позу
пожара
Блэк
спокоиствия
петлю
##хия
##скре
обидеть
целесообраз
взволнованно
Вавило
являлось
открытии
вкусно
обит
музыке
мертвыи
Васильев
заполучить
сбить
метнулся
услышит
щеб
##тание
неожиданнои
отбор
##скаи
возвед
новгород
частных
доску
##вете
забавно
текла
##висты
Дур
обере
бригада
негодяи
понимающе
##стег
##бину
перехватил
определенную
Девушки
отказываться
проста
Магну
жизнерадо
повторяю
##ливыми
Одну
Оставь
Сена
калибра
Доло
состоялся
политическии
сообража
##кидывая
надобности
прежним
навеки
##ненным
##шедшее
передумал
##тация
пропало
Горо
отрядом
сухие
голыми
труба
ревности
кораблем
мерзав
преследовать
##ноп
смет
##ПУ
входом
Аста
условно
th
Митя
победил
работники
##пым
принужд
незадолго
шор
занимать
##летает
##зме
гео
##сох
дрянь
##илан
##ступают
оккупа
добычеи
инер
собрали
опыту
##матери
контрабан
вооружения
##етала
треском
Конститу
Ильи
упира
прочт
завес
отыскал
Николаевна
турни
##зее
Арм
##сек
цып
отвечая
##розил
годам
скле
##давшего
кадров
често
локтем
##удо
##ующего
худоща
парши
прикрыла
опеку
валялись
##новок
изумления
телевизион
жизнеи
Венг
подчеркну
вампиров
##аннои
птицу
пазу
Марин
солнечно
Лермон
##чию
массои
подпи
временам
резерв
народнои
пережил
Легко
##живать
Эрика
мусора
синеи
Бат
##тук
дождался
пища
умнее
корабель
галлю
переды
помалу
##илю
приво
забываи
помогая
мальчику
фигурои
посмеи
заглуш
##ill
расспрашивать
братьями
сплошнои
пулю
проеме
двигаясь
свободным
музея
прих
построили
воздушных
антро
##днев
далекои
Ханна
##етах
кварт
##веты
ВК
второму
лампу
выходные
неумест
помога
##имс
какова
пошат
завеща
шампанского
##рисовы
волков
краев
Всякии
Уот
интересовало
Справ
нечелове
океане
Московского
Стюар
разумом
нравились
укол
страшнее
купили
напере
разведчиков
##европеи
клочья
сково
территория
довольны
Федора
дальних
Черная
##щенко
##овались
##ующая
угод
Гордон
##вером
поспе
мотивы
обсуждения
насмерть
республикан
следствием
ждем
землетряс
тенью
повышение
##хнулась
отру
мни
##силь
ориента
##сешь
пообещала
обитатели
осуществления
##яно
контрак
соверша
красивую
востока
попробую
мутан
блондинка
несущест
Фро
##точные
стоящих
солдатами
могиле
Соврем
Штатов
невинов
парадокс
Блин
##ИЧ
пригодится
Ситуа
обессил
исчезнет
кверху
синх
##инер
##соном
Стер
##искими
щеко
##кинс
игроков
подсве
##ливую
чужую
зрело
ближаишем
способностями
Публи
окошко
намерение
соблазнитель
Рэн
##даешь
нагре
социализма
пригласила
бутылка
омерз
Группа
ЗА
Питера
Феи
Полити
бля
стараться
Мура
Богороди
бокала
изряд
зона
##ровскии
Греции
одеваться
##щику
##сос
##говои
##глав
оставаясь
круже
прямом
гипо
примером
овец
сохранения
усу
областях
##гера
##09
##кура
Клин
получат
Фредер
верите
сотряс
кратко
странице
Варвара
семена
расстались
англо
происходили
пеизаж
ушам
##юю
подозрении
перелом
##скочить
лазер
возвратился
соглашение
золотым
Анжели
умные
отрядов
сооруж
захохот
посадил
Справа
коллега
интересовался
шедев
кушет
концентри
Всеволо
##бурга
Федер
принципов
регион
сделаи
застыли
##елено
помощников
следила
инструментов
##водеи
проклятыи
##сика
суше
Новго
параллельно
отодвинул
овладе
Видел
космосе
сконцентри
прикрыть
ноут
модерни
##ряю
некую
комитет
Роу
буше
распростер
Поидемте
повстан
Карен
подвед
глянула
исполнении
экономических
премии
##покои
##рованном
Лот
панике
учреждении
виноваты
пробуж
ставят
отцы
командиру
отвечали
бумага
моряков
##едино
мыслить
Обрат
ленин
однозначно
Саман
пациентов
переноси
матро
##скоро
булы
искусством
потенциал
бели
холмы
Пото
ведьмы
дышит
молодость
Насчет
лесов
сержан
рыцари
передала
замечала
юн
##тельство
голые
Разго
вокзала
волоса
Принцесса
издание
бедных
медсест
Гм
шотланд
неинтерес
располага
наконе
записки
##ентимент
отсы
взрослыи
деиствиям
Затк
Дождь
##вобо
прогуляться
Дура
заболевании
страницах
##зившись
твердым
отпи
Франсуа
##жор
Анне
##ффи
обхватил
россииского
Барон
##тимся
дик
изделия
представителями
восстание
дожидаться
оболь
##гад
магнито
риска
Оливер
морали
капитал
##ib
ринулся
предписа
объясню
научилась
генералу
присво
посольства
проду
олив
##еньку
уточнила
##нѣ
Радо
##десятых
касаясь
больным
бесспор
восторженно
ожидание
Кото
нагру
##нологии
мелкои
железных
товара
##нового
отси
##елев
поставив
религиозных
протис
шир
##сиком
Сделав
личную
вспоминала
марси
74
##слову
Стрем
##едали
запястья
##дыи
ведущих
Сест
##нического
выбросил
гнезда
наслаждаясь
обзор
##ждет
Следующии
особую
просмот
Великобритании
##рало
глубоких
Элинор
##яка
позволяло
ненавидит
задрем
профсо
Дорогая
сообра
ячеи
загра
составил
бах
взре
поверит
прижался
вслуши
панику
браке
миледи
Араб
мокрые
кончилась
подождал
##ещ
Квар
Льво
трубки
сигнали
Мадам
орбит
принципиально
Ним
Самые
сбора
##СР
Скажу
испар
желали
излага
хохо
легкую
похороны
бран
увидят
Мину
Лаура
##реры
неопределенно
цех
впечатля
Хуан
##кеи
##цман
требовании
Норман
##пак
##шаты
магазинов
попадались
мрачным
предлогом
Бывает
презри
1000
Заба
снаряды
##ври
##ставляя
##тавшись
скором
хороши
нацел
Дама
усилие
##ue
высох
доктором
утих
отто
серьезная
Рождество
тону
чары
скончался
имеющие
##удила
лифт
отвезти
означать
разбил
##редель
выбросить
картине
успехов
наследник
изображением
задержа
чистые
осуществляется
казнь
Польше
Узнав
ночные
Обна
вампира
кисть
возьмут
неуклюже
сверток
горожан
прилив
##перам
Государь
добыть
Знаком
общины
Наполеона
Гви
##еллы
покупки
Органи
вложил
##телен
заколо
вызывала
примы
Внимание
открылись
охранои
пьесы
разбить
воидет
##шкам
раздалось
нефти
духовен
Держи
##бера
голубых
христианскои
скептически
Wh
Юлия
##ителен
драки
Оби
Эг
алкоголь
обязательства
##инки
окрестностях
Литера
сжав
достигает
Ивану
Энер
Пашка
сгор
вырвал
Шах
Бедныи
содержится
артефакт
персид
президентом
подходить
исследовать
черто
старику
дурака
качеств
своиство
торговых
прощу
измель
поездку
неслыш
кв
##ind
заболел
профиль
первич
лодок
убивал
сошлись
личи
Киеве
опубликова
попробуем
мурашки
ярмар
построил
##тине
петербур
Лун
##гите
Мес
раздража
деловои
несчастнои
тягот
достижении
малеишеи
номером
шаман
соглаша
Витька
полке
прозвище
полете
веселье
XIII
сестрен
неплохои
Красныи
губернатора
Сет
обращались
Слушаите
##росток
синих
пых
случаем
невесо
предупреждение
свободные
оказывать
##пере
пиджака
##раньше
строгии
дефи
снимая
глупыи
смелости
узкую
горячие
характере
Свен
поодаль
помоги
контакты
предыдущих
##венные
штуки
следовали
пульс
совершили
ям
Закончив
трещи
разработки
вкрад
возмущения
богатым
посыпались
звонит
##комплек
Уи
рабочим
Шут
Британ
Зев
##нном
здешних
кольчу
Другая
залив
Тес
дорогих
Смерти
держи
поверили
магистра
Парни
бледное
специальнои
Хуже
поздоровался
земных
Роз
везет
фактор
обратныи
добросов
Система
вв
бури
посещения
осторожность
творить
городке
просып
последними
следит
престола
слабее
военном
##вут
Кинг
встречали
Фол
отказывается
исся
плаще
Этои
##рас
яркими
художников
Испол
мальчишек
##еник
листо
сирен
Остается
##ненная
позавтра
##чником
##текает
мельчаи
близкого
знаи
Возьмите
лампа
рванулся
поворотом
Божест
расположены
гранаты
служанка
незнакомыи
уныло
знанием
поляну
рассчита
ер
ребяти
Браиан
прекрасного
отвращением
старшина
Мухам
##мез
##мили
98
индеицев
Зим
бессиль
скрежет
##ссы
кучи
философия
догнать
чувствуете
противодеи
столкнулись
чо
заметит
умо
дорожки
останавливаться
воедино
расчеты
Касси
благодарю
терял
выказы
желаете
любимых
недоволен
наклады
подарить
Джессика
Извест
выставил
тоски
дожде
ритми
барьер
племена
разбоиников
астрономи
телеграмму
##ерка
заплатил
склада
##стона
##изусть
часовои
теплая
бесслед
Эвели
продолжаться
реформа
огород
Скот
телефонныи
желудка
##женном
гранит
##алеи
Слева
Маленькая
покуда
мемуа
расчес
Саб
##яны
человеко
слеп
заси
парикмах
некоторую
опасное
показатель
##год
##инах
бессты
охотника
сдерживая
посылать
сообща
болт
презрением
выиграл
сопут
доходов
лукаво
##цена
##нету
глупая
грузови
олицет
Вул
родины
Держа
##новского
столику
утоп
биографи
реальностью
древне
Помол
##циклоп
принципа
стражников
##вуют
оторвался
поеди
пораньше
##av
опасен
напрочь
сюрпри
##цын
провалился
назоили
смена
полны
двигателеи
возможностью
##бать
Новые
сторонников
уплы
вкусом
забуду
Дункан
засыпа
руле
скрылись
обнаружив
##гл
полосе
##восто
##удит
посмел
справится
Северо
соглашения
неудачи
Бом
Верховныи
Вед
приближались
погоды
Евгения
шея
пила
постараться
##статься
визг
разглядывать
красоте
Низ
напрас
предчувствие
развиваться
пострадал
произошли
даче
упомянул
технических
##чак
кашу
всемогу
##ционном
колебания
религия
Себастьян
серая
Воспомина
Прибли
броню
звездол
Люсь
##ивало
глубокая
Бруно
Катрин
##низон
необычно
боевую
перебор
строения
свежест
поезде
слышались
незам
Выбор
высочаи
##циклопеди
фаса
вскинула
хлопнула
студента
Хэн
перестрел
##вину
сплюнул
##фля
##утствие
Лак
штата
находив
разногла
удовлетворить
горячую
Кэро
##мее
полумра
##шатся
кель
начну
кома
впал
выключил
княгиня
доступа
обрадо
заботу
отдает
потащил
Ишь
массовои
восхищение
горных
приготовился
девицы
прижав
наизусть
носовои
подслуши
богиня
поводья
бревен
сухопут
правильное
##естои
##зино
стиму
попытается
строили
##ov
Вино
##ченности
##ерез
готовили
напуган
прекрасных
эффекта
Сиг
пустое
Другое
салоне
разъя
умирают
событиями
стоявшего
чью
хре
настал
Распу
огоньки
картоф
сугубо
мышление
инстинкт
запада
Френ
Снеи
авст
честныи
заседание
закончились
экспо
##тво
кругах
поразило
Нан
царскои
Бедня
Спросил
забавля
франков
термина
отпускать
обряд
запры
##товую
запов
шарик
развивается
энтузиаз
##нимался
выполнял
Поехали
строю
готовились
##товаться
отсутствием
серебром
кормили
особенность
важного
Гр
прохожих
набро
военноп
катало
поездка
##дует
замысел
Прощаи
иными
выкру
отбы
останешься
опыте
снимает
выпалил
зано
стиснул
девчонку
Говорю
обтя
психоан
спутники
деду
Тетя
различие
##веин
комсомоль
салат
коопера
##нимает
поверьте
разыски
натуре
невесту
стулья
кареты
зазвонил
##заннои
желтова
Уаит
утон
византи
мужествен
утвержд
полуша
пронизы
нарочи
Преду
микрофон
Чан
автором
отце
Анджел
проком
##читывать
Путеш
повлия
притих
Почув
стихотворение
тишины
##ничныи
бытие
Бере
близне
Мра
неопыт
стенку
безмяте
охватила
Улыбка
неприступ
сенса
##гус
мохна
кала
плохая
неизвестного
Петер
направлениях
Колум
нежные
короткую
комнатах
используются
керо
пром
##роста
юношеи
озадаченно
способных
Альберт
безмолв
комментарии
затро
Баба
##стоят
подъехал
##ерва
повелитель
##бился
поднявшись
удали
##ечат
высовы
коммунистов
бестол
обещания
корнеи
##евшая
обрел
доблест
патроны
Фен
доно
паника
приемов
тянуло
сослу
богатои
портфель
рота
##совых
##нков
чех
афи
возражении
Джинни
Лэн
Ладо
заплани
указание
Моис
склоне
каюты
ФБР
выглядишь
безумия
Эксп
возможнои
Демон
вызовом
мерц
отвращения
потребовала
вса
лат
экста
Летом
##чатои
пролив
Поезд
##цки
Останови
Большое
проститут
открытые
##данное
верхнии
1980
73
1960
рубе
беспокоить
Слезы
снаипер
легенда
промок
духовных
импровизи
лот
имму
ступеньки
разыг
##менных
##ct
редких
князья
Вали
##шные
бас
Передо
##хер
Собира
пронзительно
горами
метода
Эллен
атака
Лью
облегчить
##хана
фильмы
выбежал
##ЛИ
общении
семеинои
лапу
глядела
закро
Взять
учи
##анты
тягу
корне
башня
ассоциации
##чивают
конкретных
щиты
Слушаю
пускать
сбил
далекие
Джоанна
Сергеевна
ссыла
##тус
просп
##гас
поражен
##бла
##армеи
быстротои
пошутил
ходь
крепким
прибытии
яблоко
спасла
выразительно
Судьба
истребителеи
медицинскои
69
##рению
Поле
седьмои
примеры
сумочку
женские
##шкина
низкои
##щицы
схемы
##реда
извне
изну
подразделении
превратилось
юнои
росло
стрелка
Клеи
выпуская
болела
слет
превратиться
расходов
нужного
несла
##чане
представляете
собираемся
заинтересова
Сказать
уходи
азарт
вообразить
алхими
философи
Мери
негде
изменились
полна
отреагировал
косо
поддерживает
получилась
осознала
##илеи
##СБ
заявить
Берез
подска
озере
оставляли
Перестань
обедать
фирма
стили
уселись
Неудивительно
служила
Антонио
холодильник
бьют
уточнить
шарах
обменялись
бесследно
казна
пребывал
##шешь
захочется
правах
дорожку
милицию
выложить
##венныи
исходит
фрукты
тепере
1970
переставая
отделе
зия
создана
забора
босс
солдатам
запретил
взбу
предприятие
узнаете
сражались
преподаватель
##бам
патрули
опеш
заднии
проводят
##антов
ленты
##шенко
почвы
изощ
##мино
##комую
смахи
##варивая
Чел
амери
напоминать
объя
отсек
##th
придя
Сул
Авра
стороже
ложка
министерства
Беатри
##рождения
космических
##строение
учились
вырабаты
вспомога
ноутбу
физические
свит
ДНК
##ивались
##крады
люка
изобразить
##дли
оппон
##дателю
умил
взби
полезным
затормоз
эксперти
##шибо
подобном
таковои
Ордена
набрать
прикрыв
просят
выполняет
ущелье
Ch
наград
сози
строк
метафизи
самообла
собирал
бросая
подумаите
долги
вымыть
обществу
заведение
подавать
пирамиды
ночеи
Тир
предпле
крысы
беше
диалог
веселым
футболь
лоску
Поздрав
88
повстре
живущих
Одет
потрево
навязы
насторожился
прежнии
шанса
искоса
грузин
##ратор
нуждался
вольно
невообраз
внешние
Впоследствии
опасных
обеду
##бес
Постав
##дун
спасли
вторжения
##филд
траек
176
Предлага
заведении
персонала
именами
ощупь
испытывая
заднего
##бию
сошли
возвращаются
нетерпели
уполномо
##воды
Запис
определенным
закрывая
депутатов
деиствительность
свечеи
сломал
отпечатки
наказать
##каса
выехали
зажига
ломать
сделку
мадемуазель
##точных
проклятие
соответствующих
сочувствие
##надцатыи
забилось
науку
частнои
потаи
реального
перебир
описывает
превосходство
наблюдает
1993
воздушныи
принят
врезался
возвращалась
предлагали
жизненно
пустая
племянник
требуя
закрыли
синим
##орт
Адама
единым
входу
имелся
##амери
Смирнов
атмосфере
замком
сферу
гневом
Бил
независимости
старомо
2008
сентимент
##редото
##дельно
##мусь
свирепо
Иен
Куль
Привед
огляделась
Тень
зеркал
завершения
поимала
Мати
абсолютнои
танцы
принадлежать
совпадение
##ежал
параз
Тяжел
восточных
звездами
повода
свернуть
ося
грациоз
##воле
Шеи
незамедли
логики
##тушка
боем
отправляться
Абду
падают
синего
засел
##стому
убивали
веселые
врачом
Подобно
жди
зеленью
##дари
русло
##еспоко
многолет
издании
создавая
##неры
знам
командиры
ветвеи
Берия
поморщилась
Этому
скопи
поисков
творя
сокровище
##итие
##ak
дружески
происходить
VII
розовыи
однокласс
Пэ
скота
пуговицы
уровнем
значительное
влияет
Храм
выборе
выставить
Запах
чистом
царапи
схему
##еньем
длинное
носки
подумалось
искусству
размышлять
глядеть
##хранения
акцентом
##краи
предшествую
##ростью
убедившись
жира
толстым
Блю
пьют
бабка
Людмила
решимости
генералом
приносить
твоими
уксу
клубы
Револю
слыхал
освя
некто
Логи
оккупи
Утро
зависти
нежностью
обоснова
рекон
чувствовалось
##юрера
совершенства
Мэтт
устремились
моск
матри
некоторого
мелькали
##пало
##казавшись
##ованию
рассказывают
##джер
перья
старыми
рассеи
моноло
состоянием
мелоди
оторвал
защища
металлические
управляющии
##тизм
лаза
##риков
##таю
школ
##рида
Зако
2001
телевизору
белоку
состоялась
реагировать
дачу
##моро
прапор
сука
последовательно
ослепительно
выдержав
плыть
##руи
отделаться
пропуская
магазины
Даг
возникали
наполнил
персонал
Гоголя
имеющих
почувствовали
нехват
полег
уничтожил
старец
сером
##танным
загру
обдумать
долгов
шмы
начав
фле
стремятся
1999
Кад
магическои
суждения
Валери
стабили
Тама
орал
неудоволь
горячее
социальные
вступать
царила
##ЕВ
##крои
##руите
исключение
Армия
##варь
##нюхи
добродетель
1992
переживал
##точек
Мэтью
Ожи
ответит
расскажешь
орде
издав
99
Дым
просла
Вклю
медленнее
##кнулись
нако
##манд
1996
АН
Крон
грустью
набрала
брюк
Самая
##кнет
##ису
отм
вали
шепчет
##яне
##ровыи
##венном
участвовали
Нали
##моно
уголке
отвлечься
Наход
кивком
детях
аз
величества
творчество
распространение
наступило
проводи
здрав
допусти
образцы
##корд
вступили
Колин
обычную
всевозможные
соседнего
мраке
частями
железныи
дополнительных
беззабот
фургон
##канец
замки
постоянное
подходят
сохранил
потянула
заработал
абсурд
комендант
##ровоци
промах
юная
сочувственно
товарищами
шкур
опасные
листьями
##хт
релье
почуд
бассеин
привал
министров
передавать
##фея
занимала
высказывания
##новая
Людеи
Линда
##прави
бесчув
разновид
Маилз
пустых
##ветом
##словие
похожих
приеха
приносили
крыс
##фикация
##ne
последова
##тинок
мистером
Первого
раздражения
Белого
режисс
подданных
##полз
таиных
недоумением
Проидя
веток
##риата
теплую
единства
Анри
умения
высшее
полторы
Духов
малышка
уезжать
уничтожили
владеть
Абсолютно
светились
смени
навести
Суб
научного
самодоволь
Лукас
##тани
разнои
веками
сырои
растерянности
покреп
окружающим
ученым
региона
арбалет
сжалось
великую
кудря
монету
юного
Божиеи
Неизвестно
Иорка
тенденции
##щешь
оторваться
двори
недостатка
сши
обмя
##шов
Директор
потянулись
##цовои
Чика
нынешнего
разведчик
##удел
шагал
Закры
##шились
зачер
находить
Крест
прокат
поедет
задел
##сает
вкуса
##реклон
Чаще
дох
надписи
Возник
арестовали
тянул
Спро
туристов
злобы
Анту
Архан
двухэта
совещании
широком
объявление
союзники
солнечного
Мэн
колодца
Марки
украл
##кторы
##енеи
приль
фильмов
кончается
открытых
охоте
учителем
животным
##роком
знакома
музыкои
вооружении
обоидется
осмотрелся
Сес
##хослова
городские
срод
листы
излишне
Филосо
Чис
приносят
##альна
##новал
стеклом
##гредиенты
особняк
##новением
##кеан
способные
отрыв
поджа
магических
подобными
Каст
коснуться
влюблен
нынешнеи
колена
разбеж
каковы
космонав
лесо
кошелек
покрепче
дворцов
информи
Серыи
учет
научные
надеялись
приблизилась
величест
Душа
бесцвет
таиные
достоиныи
Голи
инту
исповед
хранения
##ходом
Старая
изобразил
беременности
единое
дяде
открытого
льдом
##тум
пленников
Студ
правительством
##нувшегося
прицеп
лишнее
сглотнул
топором
присвист
укоризненно
ласка
##леру
##ственному
коллекции
недобро
Аре
ове
Горе
ситуациеи
##ляем
магические
блеска
посадку
тексты
всеобщее
Поверьте
знамена
добродетели
владении
Офицер
полагалось
##рныи
##пат
свадьба
плац
оправдание
свечу
##ОТ
стрелу
чуточку
незри
полпути
монастыр
налогов
атмосферы
Аа
Помощ
безвоз
необычного
жез
насилие
двигатели
представляя
выпрямилась
деревень
девка
бегали
физическое
##риана
папе
блиста
грамма
пасты
1922
Галь
брала
далеких
безошибо
Вопросы
Спокоино
повозки
жило
входило
отпустили
##гова
Съ
##грамот
править
мнении
облике
##итивно
скрест
разыскать
Врач
Измен
взревел
меланх
постоял
двоинои
сыром
прямые
соседству
оття
славно
безжизн
сделана
дискуссии
проглотил
происходящим
Цезарь
бью
##инги
##меистер
симпатии
слуха
##тясь
зубах
закол
Сдел
расположения
одинаковые
невозможным
улови
дои
розовые
##стие
последующих
Молодая
ресницы
немцами
Афгани
глубоком
##кивать
##жились
темперам
Карина
Гун
маз
откинул
##ромо
опозна
предводитель
1936
чар
растение
##мостью
Хоу
мероприятии
истине
гава
боролся
происшествии
Руслан
уре
Эст
обеим
Информа
Зная
##сего
Мика
##теру
Гораздо
маркет
надлежа
зазвен
##гот
дурнои
СМИ
Голов
Политбюро
Республики
##олом
бази
глубин
просьбы
финансовых
пониз
##евые
шляпе
зарычал
коммуникации
краям
экстрем
снимал
русскому
предел
Пускаи
стоны
Мили
цепочку
чертами
автомобили
поиман
ая
умная
нахлы
1995
шептал
короткая
Сверху
##казанно
##ard
изучил
поблагодарить
##10
пунктов
##цан
главном
поиграть
подробностях
##тун
Секун
накапли
любу
голои
плечам
попла
директором
адеп
1998
седьмого
прижавшись
основои
1921
упадет
неприятель
Тьфу
спровоци
попадали
сочетание
грубои
##товала
помощником
Джеисон
Сму
поэтов
переговор
склонен
озабоченно
Голь
провожа
главному
##ew
награды
упражнении
перелет
Аллаха
отъездом
стиля
называла
степь
звонила
начинался
Вуль
оптим
съездить
идеологии
месть
Клара
яркои
##мочки
нава
##рид
вдова
удивительное
многократно
верои
архив
завлад
венгер
##тома
##оружи
маршал
корме
хе
##pа
крупная
стая
##пывал
припис
полотенцем
благодать
политическую
палкои
невероятнои
тянулась
разговаривает
госпожи
маркиз
Дона
Васильевна
Сзади
##нечка
Говорили
##рень
разговаривала
почитать
заклад
##ивших
подмет
светлои
Израиля
представьте
усиленно
удачу
Положение
гномов
костюмы
тенеи
дружище
бесконечные
Успокоися
национальных
##вляя
трост
тихои
шестидесяти
бывшая
разберемся
##ализация
Безусловно
направляется
Гвен
чесно
##шест
бомб
запасов
##лаи
домами
западу
##итация
Кожа
пурпур
жаловался
Стен
2003
Димит
ребятам
проан
ахнула
побуж
##вика
оставлял
оговор
перета
перерыв
##родных
встро
##екса
пуше
бьется
##зания
##няков
##резали
подумы
суз
серви
##зуется
##стане
парламент
автоном
лишен
всякому
##гоне
Владимирович
посох
плавания
волновало
здоровьем
разнообразных
антик
золотая
левая
непреклон
посадки
простонал
семеиство
поклясться
##тыль
##хав
##еби
Саня
логично
скали
состоянию
##нично
минус
приборов
случившемся
##рателеи
востоку
отрезала
мака
Ун
родном
холме
впиты
77
Такова
Жить
пластмас
##жаются
быка
командовать
сообщал
##ноб
##шепты
изображать
уважать
островах
прыгать
министром
наса
##стился
слоев
Прохо
сухим
черн
станови
галлюцина
сдал
покрытые
Европа
посадо
##щикам
подои
шерен
добралась
Николас
прекрасную
поручил
##дке
подробнее
Попробуи
беи
шала
извоз
обернуться
Кэрол
пробира
откинулась
##бата
Завер
старшая
финансо
единственную
ужасные
необычное
предсказы
конкур
пригод
месяце
ловушки
епископа
##вязать
проди
тяжко
##вени
соседнем
показав
отче
ухва
привычку
сумке
реальныи
трона
подозрением
выиду
азиат
Воин
##веню
готовится
гидро
повернули
мари
доходы
биографии
переживании
удержалась
Ситуация
диссер
преслову
интересная
питание
готовит
лохма
Гум
Нашел
преста
вызова
лицен
Вольф
отшель
бросал
Восемь
убран
Жю
кровожа
общему
вмешательства
##ологических
забываите
спереди
красива
разжи
Иными
произвели
возникнет
##беди
свидетельствуют
опаскои
залы
передел
оценку
##затор
##щемуся
##тима
##жимает
чре
умиротвор
пенсион
бабки
удержа
Жизни
недоумении
Мартина
обрывки
превосходно
##ильные
высказ
выж
звучала
доводы
бедного
водить
бездеи
штурмов
Лем
раненого
лишние
осмелился
##раздно
Стр
зеленую
умудрился
Окс
Кази
садиться
выгоды
жалел
презрение
исходе
##тают
мрачныи
мостовои
руководители
##несу
стоила
неподходя
##рею
оставим
сидевшии
Александру
пафо
неестественно
отождест
романов
немногим
примут
скользя
тысячелет
Тридцать
диким
судеи
длины
прогресс
пела
кончился
##ens
благодарностью
проблеме
Взя
Норве
##шаны
##вичем
объема
манеры
преми
подписал
Изоб
роскоши
мокрои
ездили
соединение
Горы
парков
чароде
предполагалось
##екта
Выяс
госпиталь
интересуют
потоп
выяснил
комиссия
##скин
читая
гвозди
Плен
Разрешите
обломков
##вось
осмотр
подходящего
Недаром
повину
навсего
Блеид
внутренняя
невзирая
контакта
убежала
тита
вытирая
Миранда
беспокоино
бассеина
судом
Скар
Маха
повышения
переходить
грязныи
злодея
жару
уловить
дисцип
Соответ
##ризм
обрушился
тяну
лучшую
Руз
полагая
отшвыр
тысячами
Причина
заходит
обществом
Отечественнои
дню
сочетании
штабе
##колы
боица
пребывание
Бос
окружающие
прервала
##штеина
##новую
петербург
##зоне
бегал
реих
связался
Блан
оставшуюся
##хватилась
каменным
поселке
заслуги
чиновники
Блу
оскорбление
Ще
дежурныи
тоскливо
русское
##мунд
первен
позволи
порошок
Алина
мужеи
торгу
единыи
походе
обещан
##ЕД
##енят
дотянуться
намереваясь
иеро
возражал
благодарна
возражения
переступ
##миг
грузом
ледяным
Джонс
вертолета
летопис
желто
зависимость
застонала
Иду
завтраком
букси
чиновник
белья
##ящая
разрыва
чечен
святы
энтузиазмом
вешал
Вздох
матросы
Проис
великолепныи
##te
адресо
помолчав
выклады
монахов
осквер
бумажку
##раны
знаниями
закружилась
Стефан
подобает
основного
использованием
##овскии
сопровожд
подступ
прогресса
стоянки
изна
забрала
Аманда
стерж
примеров
слушателеи
первоначально
звуча
Думал
Оч
##шкова
##сях
открывал
помрач
Международ
сладкии
поска
##данного
благородныи
опустились
записать
Домои
плотныи
пенсию
зависть
фри
господином
неповтори
подавить
местона
явится
Двена
##сала
Аля
подъема
##рается
решался
послезавтра
дружбе
быстрого
стелла
##ud
##баи
Знал
стоить
##элла
плотнои
предпочла
Приготов
ревность
карьеры
Нора
устранить
##носно
высп
продемонстрировать
Доку
списка
звонко
безы
1905
письмом
гостях
##ологические
начиналась
брош
подземелье
передав
вмешаться
##ица
страшных
документами
противоположном
входе
шнур
Комп
проща
оказывает
плавать
##кнулась
солнечные
устоять
империя
присоединились
Берг
поддерживали
сочинения
тщесла
станция
вернешься
светило
литературу
знамя
подумаю
создают
стремиться
чуди
величины
развитием
Мерку
предупредила
приблизились
сплетни
поручение
продажу
выстраи
христианство
загруз
близки
##шников
Мяг
Трех
##мири
##енаправ
Дого
Меха
Мис
усадил
ошиблась
Постои
агресси
опоры
чернила
решетки
вывели
Джил
гарнизон
петрушки
Федоров
килограммов
базар
субъекта
ср
стада
указывал
Есени
78
собрала
кеп
течением
выпустили
светлыи
отчета
ареста
замешательство
Джеффри
упоминал
Леонардо
##кис
переза
механизмы
Дэниел
проид
потерпев
бабушке
Неплохо
Сказала
испортить
##сталь
прислали
благодарить
целост
##леть
1950
упражнение
соединении
выжил
красном
##рум
приветствовал
##деля
императору
иному
сиятель
надеется
Куп
ужаснои
довольна
Испу
##тивности
Красного
тоне
свежего
чудесно
Бин
Фок
обработки
Воидя
светлых
подтверждает
нормального
сосно
Братья
гриб
облож
Фир
ясное
увяз
отнять
горела
дальнеишее
разницу
Куд
неудер
шелка
фонтан
Ровно
пассив
Станислав
разорвать
таблетки
##лз
##шилась
вызывая
##био
Фел
желтого
купцов
разведчики
сооружение
правительству
прито
безна
##слать
кузов
Выгля
предостере
##дями
нежнои
секретарем
Афи
ела
рычаг
##гляделся
##едро
##ующеи
подстри
пиратов
личная
почту
позоло
объясни
важность
воздеиствием
предпочитают
мокрыи
километра
сибир
антен
приту
тексте
королевского
интереснее
спар
Позна
подолгу
содержать
Жуков
смертных
86
отличить
##лама
поступают
Оу
имеющии
свернули
целовал
богини
называемых
магическии
##неди
покрывало
асфальт
обеспечивает
Франчес
выходом
купцы
спасет
взаимосвя
колодец
Эт
сектора
осел
бедная
Кэролаин
нагля
##щева
преданность
Гвар
сирот
нормальным
повар
Вуд
МО
ребятами
попривет
Роуз
##кование
жестокости
заката
сражался
ориги
заговорили
традиция
значительные
возьмешь
старухи
ешь
болезнью
изучая
агенты
доп
заговора
обстав
##леск
1997
виднелась
Клем
ярдов
засунул
##беи
##кивали
sa
надав
схеме
европеискои
ухватился
заставляли
горечь
перемещения
длинного
портф
##тс
правосла
поддержка
Хозяика
сотрудничество
##тою
получу
Сири
банды
##ывая
пригляды
скорои
храмов
алма
обошла
возникало
робота
егип
работах
Характер
процента
поселения
пучок
##рующего
иллюстра
Кари
##лялось
##паны
сказку
##влять
блан
воплощение
Самым
захотят
бродил
Андро
рассудок
бороз
очередная
инициативу
просо
авторит
##ренко
сильнеи
примере
Дреик
Пак
ООН
полых
конкретного
Свое
##нда
джа
##гнуло
замялся
скуки
перестать
глухим
##ффин
Цен
заднюю
оставь
берегам
вещество
ряде
Подобные
предательство
ударился
Здоров
политическая
останавливался
уронил
##шник
подчеркнуть
завоевать
##мане
куртке
Ахма
полотно
посетил
Кристиан
Швар
разгар
придумала
святые
технике
##суд
бросали
готовил
развлек
полов
благочести
приготовил
уложил
руби
шле
сильную
жары
житеи
кругов
##воражи
драгоценности
отворилась
##дового
##дини
раионов
перере
пустили
улавли
Подоз
строение
пустыню
явилось
использовании
##ившие
раскра
располагалась
##цед
##гающии
Еле
##альны
рисовать
##етти
называются
задумчивости
Бона
неправда
современныи
инструмента
ке
ирланд
пуста
сундук
звуком
живете
глупые
##all
com
Договорились
сложная
тетушка
##махала
Джан
лозун
разгне
##ривая
лохмо
дрожала
живописи
дернулась
гармонии
надлежит
выпила
отметила
смуг
утвержда
выступали
пробиться
начинало
высокопостав
приводить
доктри
Лешка
Дуб
следам
кожаныи
близкии
ранних
##50
вражеских
неприятные
Хрущев
##план
поху
страстеи
##ik
противоречия
похло
папирос
Всевы
драку
идол
наво
погибнет
больные
##памят
1994
общепри
эвакуи
приман
##тивом
доказывает
Галина
##ленностью
ревни
пострада
шестого
Валерия
##одор
золотую
безым
сударыня
##евшими
##ub
преждев
Оружие
конечности
пленника
Зар
траур
перема
слышался
радуясь
Ребек
недавнего
послушаи
перевез
Васька
культуру
вырвать
снимок
##енку
обоснован
кораблю
ставки
переша
занимаюсь
71
достижение
Западного
разнообразные
преди
позвонили
сыграл
Тому
обрыва
ношу
##танное
омра
it
непривычно
четыреста
руководил
Звук
Генриха
лидера
видал
Суда
##волил
Геннадии
всел
Зап
Обещаю
установлено
восходя
st
дорогого
лаи
профилак
вытащили
соидет
Леп
отта
опустить
выкра
##ментировал
яблоки
Берт
Рав
Люци
взма
Напря
могила
полупро
трезво
генералов
нежности
пехотин
мик
лако
продуктами
свистом
##пыты
знакомо
Галя
реформы
влюбился
нескон
Льва
правильным
Дочь
символом
убедил
Пры
##раст
провожу
минутои
беднои
метр
##вальд
аэропорту
утратил
несконча
жилища
серебряныи
Кула
превоз
прячется
цикл
##ологов
приказано
галан
дневнике
повлиять
аго
карандашом
еде
одеты
Симон
Открыв
подлокот
враща
трус
гадать
##шающии
##щер
Балти
наладить
поинтерес
ману
##ришь
##иню
викон
Евангели
назначили
Солдат
Октябрь
##ливости
сломать
произносить
огненныи
гавани
ботинок
наблюдении
ремеслен
воображ
отороп
произвела
находящихся
##бурге
незамедлительно
фил
творения
расширились
рождается
московских
ящиков
##рше
аук
дально
Мири
сложилась
сотря
##рочно
##хвал
обыкновению
контексте
задавал
подбородком
скорби
особая
Вячес
перевели
переводя
принесу
направлен
Леша
Водитель
заулыб
серебряные
выдержит
залпом
похвалил
кадры
положиться
Госу
исследователи
смах
лезет
вокзал
бокс
желают
служащих
Август
ело
солью
прорваться
##фен
##нских
мягкое
переживать
писатели
арестован
торговля
выдали
##ушками
Учит
##занных
воинами
Бреж
ранения
лидеров
заклинании
туфель
горячая
Решение
импульс
главои
достоиным
##ok
Рат
глядели
эффективности
аноним
##рно
мухи
Поттер
ознако
чужое
пропис
наставник
Русскои
Львов
##if
выпускать
Напрасно
летчик
толчок
пятью
собакои
Шен
спрашивают
приятнои
подростков
исполня
насладиться
логике
домика
помыш
пляже
##вально
типу
Зави
Полли
кислорода
##АТЬ
уголовного
козырь
контору
забв
запуска
корона
##американ
Рыба
##ight
неожиданныи
погибло
турок
слухам
##ЕК
Деж
##совым
Вдоль
ягоды
рых
предпочитает
королевои
##чуж
мощность
призвал
вры
крос
ща
непонятное
историческии
разумных
считаи
нагруд
критери
крими
репли
варить
человеческом
поглот
увеличение
ПРО
знато
обшив
##диеи
дара
проиграл
решимость
разъез
допроса
коньяк
утес
Меся
перестанет
группировки
копию
всхлипнула
косу
славныи
##ренную
лгать
сотрудничества
Серафи
неизвестныи
одиннадцати
наблюдается
достигнуть
дальнего
Визан
свитер
ручкои
историки
нату
коридорам
перестает
##лела
фрак
нежность
Туман
государству
сарая
волшебник
обуви
галереи
меркам
намерены
драгоценно
революцию
инженера
медли
Идти
кван
##олу
пулемета
побрел
##точках
кольцом
племянника
##родные
северных
выражении
условиям
потирая
прозрачнои
охранники
палатке
Холм
прикоснуться
СТ
ром
угодить
льду
пролеп
численность
##кинг
##илор
подчас
Понятия
песо
пропитан
поворачивается
Краса
добродушно
курсы
обеспечение
туннель
современном
прикрытием
демонстрируя
скелет
заставляют
капля
важна
доверял
1989
##ждем
##зак
сложить
якорь
Большую
вирус
сарказ
##нителя
##нна
ветку
Мао
исторические
углам
##сины
##генов
ясным
совещания
соседка
покрыты
жестокость
Казан
Невы
обща
##ционеры
Сереж
шокола
сельского
хижины
затру
##еных
2002
ванны
обхватив
чугу
далекии
утешить
Предло
завла
Состав
красив
усмеха
направлены
назло
специального
прекрасна
прекратил
неблагодар
Ближе
императором
тарелке
неожиданное
Самолет
сотрудника
отдавая
трамваи
Штаты
Сити
расставаться
Орден
Начало
##носца
##дре
повели
написана
Харт
стемнело
крупно
добры
скамеике
французские
прося
женских
публично
гадость
ском
физиономии
съезд
доходит
2004
обороне
Анастасия
повесть
узком
официальнои
Доминик
84
Аки
придает
бутылок
святым
##фами
##зывал
##жешься
защитников
##мыслы
рождествен
нужных
повернулись
герцоги
свидетели
фотоап
отпечаток
работник
езды
притянул
выразился
картинка
пронесся
делалось
передачу
ОК
поглядывал
припомнить
Исклю
важен
серое
##тировали
доставил
Труд
Энгель
##алит
охватил
предал
добр
подходе
подозревала
ухожу
Камень
проехать
Катю
высматри
глупостеи
передает
правдоподоб
окружение
вызовет
800
неслись
рети
считанные
устроилась
Женев
Молча
делить
заходя
высе
Владыка
al
производстве
пассажиры
реальных
мечами
обработ
вытянув
приземлился
предстоящеи
Фактически
бухгалтер
горем
##удовлет
гонора
гип
гражданских
сувер
##марк
коснулись
потрат
стеклу
##сотни
дорогам
шляпы
##сио
зати
местными
условием
устроиться
ножен
Джорджа
заходить
дну
товарищам
Улыб
катастрофи
формирование
переулок
пулеметов
##нинои
повесел
продолжался
всеобщего
оправдать
нетро
продаже
Встреча
потолке
вертел
убраться
##есту
сидящего
спорили
Линд
мужества
##валить
переодеться
Арк
поспешили
##вость
перепа
потребностеи
павиль
Кса
отпустила
Свою
Фредди
реальные
пятки
##точкои
втаине
рисунки
попере
наяву
лже
##ителях
включа
цыпочках
жалобы
довольство
мг
кавказ
Моисе
ножны
бедро
стремления
Приятно
индустри
планировал
космического
Клэ
Зара
арест
ураган
РК
высокомер
презира
вздор
короткого
схватке
претер
стражеи
##фик
общественное
микроско
выборов
##етью
прошипела
Уит
честью
огрызнулся
дикто
жилет
разочарования
предосторожности
##хеи
оставляют
ласки
пика
Приказ
персонажеи
искусств
построения
обращении
пятилет
Белору
угодил
склонны
мишень
родственник
Ефрем
гну
маи
моряки
диапа
Зор
складки
суха
Ростов
своею
спрятала
##туар
смертныи
эски
приклады
утверждали
даты
воображении
##30
понадо
жесткои
##новалась
##ствуи
me
мужественно
одобрил
сдерживать
##нувших
кату
полураз
нью
Симе
внук
написаны
##сковои
Трэ
Темныи
осознание
альбо
пивом
##блись
хранитель
растерялась
остановилось
##хард
##еспособ
координаты
несрав
ненавидеть
Деб
детского
офиса
рюмку
постоянным
et
хоб
##хоз
связываться
телевизора
объединения
вылаз
опасного
контрреволю
сообразила
острых
мыслям
[...]
